#version: 0.2
t h
i n
a n
th e</w>
e r
a r
o u
t o</w>
r e
in g</w>
e r</w>
e n
e d</w>
an d</w>
o n
o r
t i
e s</w>
o f</w>
a l
i n</w>
s t
a t</w>
i s</w>
o n</w>
i t
r o
o r</w>
i l
a s</w>
a n</w>
e l
o m
e n</w>
h e</w>
a t
a c
i c
s t</w>
v e</w>
th e
l i
h a
w h
p l
e c
s e</w>
o o
th at</w>
c h
l y</w>
r i
e a
a y</w>
o u</w>
s i
t s</w>
o l
d i
a l</w>
f or</w>
u r
i t</w>
n o
ar e</w>
a m
e v
y ou</w>
` `</w>
' '</w>
b e
e s
er e</w>
en t</w>
w as</w>
s h
e ar
er s</w>
a b
' s</w>
l o
a ti
T he</w>
u n
g h
it h</w>
a g
T h
l d</w>
w ith</w>
k e</w>
ou r</w>
a d
ou n
a s
u t</w>
ou t</w>
s a
e x
s u
w or
b e</w>
i r
th er</w>
l e</w>
e t</w>
t r
d s</w>
e m
ha ve</w>
p ro
on e</w>
pl e</w>
c om
m o
s p
c e</w>
or e</w>
i r</w>
m e</w>
p e
o w
v er
n e
ou ld</w>
the y</w>
ro m</w>
t er</w>
al l</w>
f f
f rom</w>
p er
gh t</w>
o ple</w>
c an</w>
s o</w>
om e</w>
e e
u l
c h</w>
c on
the ir</w>
i d</w>
u s
m a
i d
i m
no t</w>
pe ople</w>
o p
il l</w>
ati on</w>
n '
n' t</w>
u d
t a
b y</w>
h is</w>
y s</w>
p ar
h i
c i
an y</w>
t h</w>
en ts</w>
m ore</w>
in g
r a
k ing</w>
e y</w>
e t
d ay</w>
h er</w>
y our</w>
d o</w>
it y</w>
on s</w>
w ill</w>
i s
an g
b o
q u
m y</w>
t ed</w>
re s
oo d</w>
h o
c l
t o
p o
sa id</w>
a u
I t</w>
ab out</w>
w e</w>
b ut</w>
ti on</w>
h as</w>
t er
al ly</w>
t e
g h</w>
d o
ha d</w>
s e
a p
es s</w>
an t</w>
f or
W h
ti me</w>
at e</w>
ou r
th is</w>
ea r</w>
a r</w>
b ec
C h
u p</w>
o ther</w>
ur e</w>
k s</w>
w ere</w>
ag e</w>
d e
am e</w>
d u
c o
oun d</w>
wh o</w>
the m</w>
t w
v i
ol d</w>
wh en</w>
m u
g r
l e
p or
s he</w>
g o
ch oo
on g</w>
u m
st ud
f u
th ing</w>
il d
w ay</w>
H e</w>
no w</w>
g i
m e
w a
k ed</w>
ev er</w>
t ing</w>
h el
th an</w>
I n</w>
ou gh</w>
B ut</w>
li ke</w>
st r
ic e</w>
en t
ev er
ic h</w>
in e</w>
om e
v er</w>
ing s</w>
ow n</w>
th ere</w>
f i
y ear
s el
f e</w>
in d</w>
n i
al so</w>
oo k</w>
b u
w ould</w>
s ome</w>
d ing</w>
ver y</w>
f a
g et</w>
f ir
wh at</w>
ab le</w>
l a
el l</w>
ac e</w>
s choo
u st</w>
mo st</w>
p p
m any</w>
re c
Th ey</w>
wh ich</w>
a d</w>
f e
en ce</w>
si d
al l
ac k</w>
c ar
o f
v ing</w>
it s</w>
au se</w>
g e</w>
en d</w>
ne w</w>
l l</w>
c ould</w>
m on
l ea
y ing</w>
A n
v es</w>
re e</w>
i es</w>
year s</w>
u s</w>
it e</w>
wor k</w>
at er</w>
e st</w>
n ing</w>
re n</w>
s on</w>
s ome
st s</w>
j o
ma ke</w>
m ent</w>
c re
f ter</w>
0 0</w>
tr a
be en</w>
ild ren</w>
du c
in to</w>
i f</w>
ac h</w>
s m
f ri
p u
ou s</w>
d er
g re
el y</w>
fir st</w>
on ly</w>
il y</w>
di ff
b l
ho w</w>
- -</w>
Ch in
es s
an s</w>
p h
li fe</w>
p a
j ust</w>
f am
on al</w>
p s</w>
ar d</w>
il e</w>
p re
ch ildren</w>
e i
fu l</w>
hi m</w>
l s</w>
an d
al s</w>
schoo l</w>
wor ld</w>
v ed</w>
lo w
c oun
d er</w>
b er</w>
bec ause</w>
g ood</w>
s o
tw o</w>
ad e</w>
an ce</w>
o w</w>
ev en</w>
ec t</w>
t ri
en ti
c ol
b i
m ay</w>
di s
n o</w>
di d</w>
b r
ar y</w>
re d</w>
in k</w>
W e</w>
ti c
m er
t en</w>
at ed</w>
ti es</w>
w i
I n
g o</w>
m an</w>
Y ou</w>
hel p</w>
Wh en</w>
y ear</w>
Th is</w>
or s</w>
I f</w>
mu ch</w>
t ur
e se</w>
al i
e st
ee p</w>
2 0
o ver</w>
m il
p res
S he</w>
por t
l ear
1 9
st ar
ha pp
ta ke</w>
ac h
d ed</w>
o ff
re s</w>
k now</w>
S t
wa ys</w>
ti m
for m
n ed</w>
se e</w>
wh ere</w>
in ter
ch ang
r u
r e</w>
pl a
o se</w>
st or
diff er
stud ents</w>
s er
th en</w>
u t
sa ys</w>
s ur
m i
f ore</w>
A mer
w r
Amer ic
o c
s h</w>
s es</w>
ti ons</w>
us ed</w>
a fter</w>
d a
An d</w>
t le</w>
g u
s ti
e l</w>
k es</w>
s ed</w>
e al
E n
p r
si on</w>
p ri
en c
b ack</w>
f in
u se</w>
b le</w>
m in
en ds</w>
m ade</w>
ec i
tr y</w>
h ome</w>
r y</w>
Th ere</w>
il l
f ac
con t
sh ould</w>
re ad
a m</w>
the se</w>
t y</w>
at es</w>
g g
m ar
ati ons</w>
th ings</w>
c lo
ex per
th r
O n
w ant</w>
th ink</w>
t ure</w>
l oo
ro w
ac c
com m
to o</w>
t u
i c</w>
l it
d y</w>
ou ght</w>
o m</w>
sel f</w>
im port
f ood</w>
el i
ic al</w>
sid e</w>
f ound</w>
c a
su ch</w>
ar ound</w>
ea d</w>
m em
l ar
s ay</w>
En g
d own</w>
y oun
d ev
no w
sh i
w ater</w>
ne ed</w>
u e</w>
t al
f ind</w>
be fore</w>
in s</w>
ever y</w>
tim es</w>
w ee
e ach</w>
com e</w>
e p
ver s
e w</w>
an ts</w>
w ell</w>
ag a
v id
u c
h ou
il d</w>
s k
it ed</w>
s ec
on g
l and</w>
differ ent</w>
s ing</w>
si g
ti ve</w>
at ing</w>
cl as
com p
thr ough</w>
w om
em s</w>
fam ily</w>
an c
l ong</w>
o g
t re
at t
par ents</w>
th ers</w>
import ant</w>
be g
s w
mon ey</w>
some thing</w>
l ess</w>
s ci
c all
c c
th ose</w>
of ten</w>
d ec
s y
g e
f l
ever y
el l
wh ile</w>
st a
Chin a</w>
ri ght</w>
sti ll</w>
th ree</w>
ow ever</w>
F or</w>
lit tle</w>
e a</w>
en er
k now
fri ends</w>
stud y</w>
f t</w>
lo w</w>
t ter</w>
li sh</w>
be ing</w>
S o</w>
w ar
do es</w>
h eal
h ear
s ame</w>
res ear
e -
A l
o p</w>
p ic
A s</w>
b re
wi th
w al
ati onal</w>
e en</w>
cl ud
youn g</w>
al ways</w>
per son</w>
s ure</w>
gre at</w>
e ff
n ever</w>
our s</w>
i l</w>
ur ing</w>
li on</w>
so ci
' re</w>
er ed</w>
pl ace</w>
in v
da ys</w>
go ing</w>
par t</w>
Chin ese</w>
ex t</w>
un der
lo c
st e
of f</w>
t e</w>
On e</w>
c er
p ing</w>
un i
b us
be tter</w>
p ol
ee l</w>
an ds</w>
be st</w>
g a
s l
f ul
dev el
z e</w>
a way</w>
si c</w>
in clud
is h</w>
e y
o b
0 00</w>
b eli
p op
an im
vers ity</w>
Eng lish</w>
ex p
t ec
l es</w>
d r
n er</w>
w at
ear ly</w>
re n
in ce</w>
fe w</w>
it ing</w>
pro duc
la st</w>
gi ve</w>
t ly</w>
en g
d ri
pro b
go t</w>
m at
ex am
o re
call ed</w>
n um
en d
as ked</w>
Wh at</w>
e d
pop ul
bo dy</w>
i g
po s
U n
sm all</w>
h um
stor y</w>
an y
p ut</w>
mo ther</w>
l ook</w>
re ally</w>
l ine</w>
w ent</w>
c ame</w>
m an
ag es</w>
lo t</w>
c ri
b oo
a v
f eel</w>
en s</w>
bec ome</w>
i ds</w>
or t</w>
t old</w>
in ess</w>
b ook</w>
ic i
b li
sh ow
ro om</w>
c ar</w>
st er</w>
gr ou
t el
ou t
exper i
hi gh</w>
v en</w>
e at</w>
em ent</w>
u m</w>
S ome</w>
c ent</w>
ac ti
mi ght</w>
Th at</w>
be tw
betw een</w>
pl an
c our
re ad</w>
M ar
ic k
ol og
ang u
ea s
f r
an other</w>
Th en</w>
M y</w>
t or</w>
, 000</w>
s s</w>
chang e</w>
p i
sh ed</w>
li ve</w>
w in
p ed</w>
ou s
p as
bi g</w>
th ough</w>
g ra
li m
g et
n ext</w>
lear n</w>
P e
por t</w>
ec ted</w>
mu st</w>
sp eci
c u
hou se</w>
h ours</w>
Americ an</w>
in ed</w>
qu i
tra v
ni ght</w>
pu bli
ti c</w>
f ol
b as
o thers</w>
g ir
on d</w>
A t</w>
n ess</w>
U ni
h ard</w>
t ook</w>
A fter</w>
k eep</w>
H owever</w>
l ed</w>
su cc
M r
k et</w>
N ew</w>
th ought</w>
ad v
l angu
si ble</w>
ter n
ne w
bre a
in cre
c ity</w>
lo ve</w>
c ul
' m</w>
coun try</w>
fa ther</w>
b or
re l
su m
b ir
p er</w>
en ed</w>
M o
d re
' ll</w>
d uring</w>
v ir
am es</w>
re sp
th s</w>
en ing</w>
on es</w>
ch ild</w>
t ers</w>
id e</w>
hi gh
ar m
s it
s en
an i
u su
with out</w>
devel op
m is
under st
ec ts</w>
su l
mil lion</w>
el s</w>
sci enti
ta in</w>
en ough</w>
L i
k ids</w>
h n
sh ow</w>
p e</w>
ic ul
ic es</w>
per cent</w>
ex c
z ed</w>
ag o</w>
w an
po in
num ber</w>
d es
e duc
1 0</w>
jo b</w>
or y</w>
ac t</w>
ch ar
ne e
res s</w>
tri es</w>
com pu
form ation</w>
li ght</w>
mu sic</w>
b ro
pl ay</w>
k ers</w>
et y</w>
an g</w>
or ning</w>
D o</w>
en jo
Uni versity</w>
g row
N o
ph one</w>
ea l</w>
il ity</w>
or ding</w>
ro w</w>
ap p
e w
th er
si t</w>
o k
s et</w>
aga in</w>
star ted</w>
l ater</w>
wom en</w>
e ve</w>
su p
d ic
s c
S h
anim als</w>
us ing</w>
n at
wor ds</w>
ic k</w>
ser v
g s</w>
g ar
20 0
M any</w>
bo th</w>
exam ple</w>
J o
t y
in ing</w>
f ace</w>
on d
beg an</w>
at h</w>
re as
h un
pl ac
m en</w>
t ea
b ea
boo ks</w>
h ere</w>
te ach
shi p</w>
y ed</w>
si m
olog y</w>
ent ly</w>
P ar
f our</w>
read y</w>
coun tries</w>
M a
s ee
f oo
wor king</w>
com pl
ou th</w>
b ra
b a
c a</w>
fri end</w>
e ts</w>
f ore
in formation</w>
' ve</w>
re sul
c ha
le ft</w>
p ow
to ge
wh y</w>
langu age</w>
s ol
ma king</w>
pro vid
n s</w>
grou p</w>
some one</w>
ei ght</w>
e as</w>
happ y</w>
toge ther</w>
wan ted</w>
wee k</w>
o ver
ti l</w>
ati ve</w>
ch o
in es</w>
min ut
In tern
do c
su b
pl y</w>
ar i
di rec
O n</w>
st u
comp any</w>
t ell</w>
an sw
fi ve</w>
le m</w>
qu es
n ame</w>
sp ea
bo y</w>
cont in
tur n</w>
it al</w>
l ong
3 0</w>
ac k
Pe ople</w>
heal th</w>
in t
h ea
bec ame</w>
au gh
h ead</w>
prob lem</w>
know n</w>
g ener
m er</w>
W or
sel ves</w>
ch ers</w>
k ind</w>
ep t</w>
a st</w>
pro bl
u ti
pro f
experi ence</w>
20 1
d en</w>
diff icul
h op
un til</w>
c am
le ge</w>
gh ts</w>
at s</w>
comm un
n ec
vir on
s al
pl o
A u
0 0
N ow</w>
st re
il ls</w>
il i
do ing</w>
h ar
t ou
probl ems</w>
ap er</w>
an k</w>
clas s</w>
ac her</w>
m s</w>
f ree</w>
id ea</w>
sa w</w>
l et</w>
li ves</w>
on ce</w>
T o</w>
lar ge</w>
resear ch</w>
wr it
ma kes</w>
or g
pos sible</w>
popul ar</w>
ro ss</w>
ti onal</w>
di es</w>
en tion</w>
car e
a ir</w>
im pro
speci al</w>
d in
tec hn
bu ild
Un ited</w>
re mem
v is
s ince</w>
to day</w>
th y</w>
the m
k en</w>
loo ked</w>
l ing</w>
ti v
go ver
h al
as k</w>
for m</w>
t able</w>
l ev
b all</w>
h and</w>
el e
B e
f el
d e</w>
Th ese</w>
te acher</w>
li k
un der</w>
rec ei
a ff
b ad</w>
er ing</w>
star t</w>
ar t</w>
ri ed</w>
fac t</w>
ea se</w>
ol e</w>
tr an
ever al</w>
in king</w>
en viron
d ro
wom an</w>
in st
e an</w>
read ing</w>
b ed</w>
Mr .</w>
fam ous</w>
me ans</w>
usu ally</w>
am s</w>
gover n
tur ned</w>
b s</w>
enc es</w>
N o</w>
si ve</w>
per s
al ity</w>
n or
t on</w>
publi c</w>
beli eve</w>
2 0</w>
s ing
or ts</w>
t ors</w>
f il
bus iness</w>
m orning</w>
gr ad
get ting</w>
t em
lik ely</w>
bu y</w>
con sid
c oo
a f
li ving</w>
P ro
inter est
hum an</w>
loo king</w>
id ed</w>
v e
co ver
w ea
year -
h u
B ri
n ers</w>
1 8
cour se</w>
c are</w>
us e
k er</w>
b ur
al most</w>
st ed</w>
e f
U S</w>
5 0</w>
str uc
tea m</w>
fol low
c or
to p</w>
st op</w>
y s
p ay</w>
cont ro
l et
H is</w>
ag ed</w>
f ar</w>
su gg
u p
du ce</w>
ste m</w>
ch ing</w>
b ers</w>
sl eep</w>
scienti sts</w>
e e</w>
j ect</w>
c ap
si ons</w>
A r
v al
G re
c ent
s ha
educ ation</w>
ey es</w>
en ter</w>
ang e</w>
g er</w>
wh e
po si
com es</w>
th ir
H ow</w>
par t
me di
te st</w>
compu ter</w>
ear s</w>
T V</w>
ab ly</w>
ri s
fu ture</w>
an ding</w>
es p
v ol
hear t</w>
compl et
tal k</w>
di ed</w>
mon ths</w>
b er
B o
pa st</w>
car s</w>
fe el
d ge</w>
includ ing</w>
lear ning</w>
schoo ls</w>
de sig
bea uti
sur pri
ha ving</w>
l u
B r
t ow
y our
sh ar
f re
soci al</w>
c ur
do or</w>
b ab
l y
en tr
St ates</w>
mo ve</w>
Mo st</w>
v o
minut es</w>
g y</w>
on om
col lege</w>
incre as
an n
a il
lea st</w>
ar ri
s everal</w>
u ro
stud ent</w>
A ll</w>
sy stem</w>
' d</w>
w on
h and
E x
tr ac
ful ly</w>
gir l</w>
f un
your self</w>
loc al</w>
al e</w>
on line</w>
w e
sh op
Intern et</w>
underst and</w>
a ke</w>
beauti ful</w>
Y or
hal f</w>
o d</w>
el ec
L ond
an t
enjo y</w>
sp end</w>
er i
st ay</w>
every one</w>
ab ility</w>
ar ea</w>
sec ond</w>
ta king</w>
op en</w>
fa st</w>
difficul t</w>
resp on
ac ross</w>
ur al</w>
re ali
m ind</w>
year- old</w>
ill ed</w>
them selves</w>
qu ick
ent al</w>
w o</w>
k in
de p
W ith</w>
gr ound</w>
Americ a</w>
p ho
resear chers</w>
al low
ga ve</w>
do g</w>
ati on
an ci
m id
govern ment</w>
every thing</w>
dec ided</w>
a ir
fel t</w>
any thing</w>
so on</w>
col l
re al</w>
c lim
sp ace</w>
n ational</w>
d ol
re por
c all</w>
Lond on</w>
al ong</w>
r un
at ely</w>
vi sit</w>
i se</w>
f ic
gh t
li st
C on
H a
tu res</w>
ad ul
ro ad</w>
ur y</w>
Yor k</w>
o es</w>
e ating</w>
tu ally</w>
fu n</w>
eas y</w>
. .</w>
h our</w>
gra m</w>
sh ing</w>
C om
us es</w>
y -
g l
f ish</w>
tra di
remem ber</w>
d one</w>
al ready</w>
plac es</w>
F r
st om
T o
w ard</w>
p ur
bor n</w>
trav el</w>
m y
d ang
wor ks</w>
bra in</w>
wal k</w>
techn ology</w>
k new</w>
E uro
b it</w>
J ap
m ents</w>
sum mer</w>
as s</w>
s mo
mo vi
Wor ld</w>
c k</w>
Ch ri
in i
lea ve</w>
u res</w>
show s</w>
se en</w>
h om
quick ly</w>
ti sh</w>
si x</w>
M on
fr on
or der</w>
st op
er ci
wor d</w>
ec onom
- year-old</w>
ful l</w>
em plo
or i
whe ther</w>
R e
ch ed</w>
s ite</w>
h er
ne y</w>
G r
at ure</w>
teach ers</w>
oun ds</w>
con f
gi ven</w>
str ong</w>
ma j
comm on</w>
v ers</w>
lo st</w>
en ding</w>
pro c
m om
com pe
u r</w>
tr ying</w>
acc ording</w>
cover ed</w>
. ..</w>
wr iting</w>
ru n</w>
ok ay</w>
d en
pow er</w>
re g
e sts</w>
long er</w>
br ing</w>
R o
vi ew</w>
d le</w>
no thing</w>
in c
b en
org ani
e f</w>
fi el
i gh
z ing</w>
st ing</w>
out side</w>
c le</w>
di st
am ong</w>
A d
hi story</w>
a se</w>
ti on
p aper</w>
some times</w>
ser i
ener gy</w>
ar ds</w>
heal thy</w>
Bri tish</w>
eci ally</w>
fron t</w>
sk ills</w>
esp ecially</w>
B y</w>
ex pla
fl u
ex erci
or d</w>
att ention</w>
1 0
b ri
ti ci
ph ys
vi ties</w>
t own</w>
di sa
sid ent</w>
ir e</w>
d ers</w>
fri end
mon th</w>
fa v
in st</w>
mar ket</w>
ma in</w>
S u
S p
ac tually</w>
pi ec
commun ic
grad u
C ol
wh ole</w>
enc our
tr ue</w>
j ing</w>
cl ear</w>
1 5</w>
aga inst</w>
pro gram</w>
h ur
ho li
am ed</w>
succ ess
poin t</w>
st e</w>
po or</w>
N or
cul ture</w>
B ei
c al
build ing</w>
S ci
Wh ile</w>
se a</w>
m ing</w>
sh ort</w>
prob ably</w>
augh ter</w>
n ear</w>
bec om
anc es</w>
R es
sp e
E ar
te en
nee ds</w>
wr ite</w>
l ate</w>
sp o
p ati
ta ken</w>
en ded</w>
d -
ar ti
th es</w>
ta in
sta ur
re staur
S choo
v ari
ul ar</w>
c at
per form
acti vities</w>
19 9
est er
ri es</w>
th ous
h ol
u al</w>
h owever</w>
environ ment</w>
beli ev
il ies</w>
b and</w>
D ay</w>
d ra
sit u
b el
S ome
l un
pla ying</w>
clo se</w>
hear d</w>
ar eas</w>
j u
di vid
new s</w>
ic s</w>
b il
f arm
won der
t om
f low
il s</w>
com for
Americ ans</w>
o per
b ar
nat ural</w>
g row</w>
ex pres
wat ch</w>
pr in
h or
wi fe</w>
contro l</w>
vi ew
ta kes</w>
bas ed</w>
st y
re co
g ame</w>
h ind</w>
c ause</w>
il ed</w>
as h</w>
ig n</w>
sp ent</w>
g ames</w>
m ess
am oun
Bei jing</w>
h on
clo thes</w>
ous ly</w>
g en
in du
fi c</w>
pa in
pl ants</w>
ci ties</w>
str y</w>
com ing</w>
D i
or ies</w>
fr ic
pla y
m et
mo ved</w>
nee ded</w>
c old</w>
ch es</w>
pro gr
per i
or t
w eight</w>
me et</w>
a ver
off ice</w>
em p
pp ed</w>
contin u
bu s</w>
chang ed</w>
sp ec
si b
succ ess</w>
A fric
ra ther</w>
qu ite</w>
ch ance</w>
hop e</w>
cer tain</w>
h ands</w>
f -
go es</w>
el se</w>
con cer
resul t</w>
wor ked</w>
E ven</w>
bi gg
o gi
d ly</w>
st ore</w>
gr and
Wh y</w>
au th
tri p</w>
re st</w>
k ey</w>
ar m</w>
reas on</w>
par ed</w>
g lo
sh are</w>
sci ence</w>
ac hi
te l</w>
be hind</w>
answ er</w>
sp orts</w>
j ects</w>
fam ilies</w>
em ber</w>
m ental</w>
lear ned</w>
sen se</w>
C ar
emplo y
a w
v ity</w>
wh ite</w>
ben ef
1 2</w>
re port</w>
d ow
ho sp
ch ec
t es</w>
char ac
n y</w>
th inking</w>
sim ple</w>
off er</w>
f lo
c ou
en ter
k ee
H ar
H ere</w>
Au str
Chri st
T i
gi ving</w>
show ed</w>
cu stom
con di
Austr ali
ol ogi
o s</w>
j our
enc y</w>
en ted</w>
em ents</w>
sa ying</w>
an ies</w>
In di
off ici
mat ter</w>
S o
stor ies</w>
h im
all s</w>
me an</w>
H er</w>
ap pro
0 s</w>
il t</w>
d et
tri ed</w>
ro te</w>
choo se</w>
c ele
b an
man ag
in side</w>
av ail
w rote</w>
F ri
hel d</w>
par tic
pers onal</w>
ess or</w>
o ve</w>
a st
C an
c anc
sup port</w>
inst ead</w>
re qui
Schoo l</w>
gir ls</w>
ne igh
er y</w>
rec ent</w>
per f
h old</w>
th re
provid e</w>
nec ess
pho to
ev i
E l
id ence</w>
doc tor</w>
chang es</w>
k ets</w>
in flu
A cc
grow ing</w>
c r
aver age</w>
me d
tr u
wr ong</w>
al one</w>
lev el</w>
ge ts</w>
co st</w>
cent ury</w>
impro ve</w>
ear ch</w>
p ul
ra is
at trac
g ni
elec tr
spea k</w>
si st
b al</w>
a i
N ational</w>
wee ks</w>
pl an</w>
f oc
be ha
comp anies</w>
jo bs</w>
c ro
P h
li ved</w>
maj or</w>
r ing</w>
hel ps</w>
him self</w>
bo x
avail able</w>
mo der
p es</w>
em o
tr ou
lar g
at est</w>
U .
ch all
s un
bl ack</w>
O ur</w>
d aughter</w>
su ff
tic al</w>
with in</w>
op port
un te
de ath</w>
Al though</w>
f er
af ter
shi ps</w>
d am
new sp
ex i
se ems</w>
par ts</w>
feel ing</w>
mom ent</w>
ha ps</w>
stu dies</w>
wal king</w>
serv ice</w>
tre es</w>
d ar
z ation</w>
ell ing</w>
sa f
P re
G er
t ree</w>
s of
ris k</w>
m as</w>
ques tions</w>
cele br
tic s</w>
sh op</w>
F in
wea ther</w>
sa ve</w>
exerci se</w>
bo t
a in</w>
trav el
D e
h us
incre ase</w>
do m</w>
li es</w>
P o
h ear</w>
rel ation
dis ease</w>
inv ol
we b
s cre
high er</w>
1 00</w>
en sive</w>
m p
kin ds</w>
ca se</w>
Th e
S outh</w>
To day</w>
h n</w>
in ks</w>
wor kers</w>
s et
interest ing</w>
exp ected</w>
d eal</w>
cl u
uc k
fil m</w>
ac tion</w>
v en
develop ed</w>
on -
hel ped</w>
ul es</w>
compe ti
produc ts</w>
n early</w>
Christ mas</w>
me an
le g
m oun
f f</w>
f ru
beha vi
see m</w>
uc k</w>
st ate</w>
id ent</w>
ex t
br ought</w>
P er
use um</w>
Y our</w>
des cri
ou gh
Br it
s even</w>
19 8
C o
i a</w>
f all</w>
success ful</w>
G u
y be</w>
thir d</w>
E very</w>
m us
my self</w>
un e</w>
de st
follow ing</w>
bab y</w>
ab les</w>
S un
w ide</w>
ph ones</w>
Acc ording</w>
cre ate</w>
mat eri
s end</w>
ou d</w>
ol der</w>
c ed</w>
sim ply</w>
seri ous</w>
si mil
pl es</w>
m ee
m ach
es tiv
c es</w>
er ous</w>
li st</w>
k et
gre en</w>
anim al</w>
f ur
wee k
bu ilt</w>
E ver
know le
im ag
P r
ec tion</w>
Jo hn</w>
ar ly</w>
om s</w>
ho t</w>
fav or
4 0</w>
qu ality</w>
happ ened</w>
s il
tradi tional</w>
bu ild</w>
r ich</w>
O c
tal king</w>
s ent</w>
lea d</w>
si a</w>
re ach
par k</w>
den ly</w>
M ic
2 5</w>
is su
n amed</w>
dr ink</w>
pres ent</w>
hus band</w>
amoun t</w>
W a
id eas</w>
includ e</w>
y et</w>
c ra
c entr
bo ys</w>
c ut</w>
m ea
nor m
adul ts</w>
fe et</w>
v ely</w>
stre et</w>
av o
s ou
d eci
se em
pr ice</w>
ro bo
B ec
m ir
ques tion</w>
e an
do gs</w>
: 00</w>
wal ked</w>
sel f-
evi sion</w>
d em
app ear
vid e
ei ther</w>
tra in</w>
fiel d</w>
_ _
stop ped</w>
resul ts</w>
co ver</w>
A c
reco gni
cur ren
s .</w>
J an
inter est</w>
ra di
h it</w>
li ons</w>
ag re
w ants</w>
s low
Eng land</w>
st o
at ures</w>
eff ect</w>
D r
str ic
ill ing</w>
. m
enti al</w>
dre am</w>
hu ge</w>
h ood</w>
re gi
J u
wat ching</w>
U. S
in ation</w>
bir ds</w>
bil lion</w>
s ound</w>
popul ation</w>
din ner</w>
brea k</w>
devel op</w>
as s
grou ps</w>
te en</w>
Some times</w>
k ept</w>
A n</w>
pa in</w>
as es</w>
it ors</w>
1 .
bl ood</w>
vol unte
no on</w>
co ff
moder n</w>
mem bers</w>
ter m</w>
st ri
develop ment</w>
da ily</w>
uni versity</w>
ma in
ad s</w>
l ack</w>
eas ily</w>
ch em
J ust</w>
mil es</w>
fin ally</w>
exper im
shop ping</w>
H o
part ment</w>
clas s
teen ag
sa fe</w>
ent y</w>
op ened</w>
d ou
c op
su n</w>
row n</w>
run ning</w>
m ag
sp ort</w>
sy ch
ve get
hosp ital</w>
ev ening</w>
in divid
no v
mid dle</w>
sty le</w>
sh es</w>
r an</w>
er v
us h</w>
soci ety</w>
pri v
h ome
d ress</w>
fin i
P l
Ear th</w>
U K</w>
F rom</w>
s ea
proc ess</w>
v ill
sur v
1 1</w>
pol lu
ear th</w>
ad di
bus y</w>
ati s
Ever y
nat ure</w>
vo ice</w>
in e
an k
F ren
tici p
ili ties</w>
St ud
C ali
movi e</w>
ut e</w>
simil ar</w>
O ly
Brit ain</w>
s or
dri ving</w>
cl ean</w>
cl es</w>
canc er</w>
w on</w>
tel evision</w>
fir e</w>
pol ic
E ach</w>
qu e</w>
No t</w>
lo ts</w>
fi ed</w>
am a
pre v
phys ical</w>
ni a</w>
differ ence</w>
m et</w>
D uring</w>
s -
d on
recei ved</w>
con sum
c an
tra ining</w>
b ack
po t
publi shed</w>
seem ed</w>
er t</w>
pas s
favor ite</w>
ad ded</w>
C ity</w>
es si
sur vi
tur al</w>
pla yed</w>
lea se</w>
l ess
clas ses</w>
ch e
ul arly</w>
u ary</w>
pl ic
coff ee</w>
F ir
R i
g oo
n ice</w>
hum ans</w>
ha b
win ter</w>
ou se</w>
knowle dge</w>
n u
tem per
interest ed</w>
ha ir</w>
any one</w>
necess ary</w>
S ince</w>
t oo
Cali for
ta ins</w>
lo se</w>
d eli
li fe
re turn</w>
pro tec
d at
usu al</w>
thous ands</w>
b al
ir s</w>
mi sta
r ules</w>
su d
M r</w>
writ ten</w>
hea v
in ning</w>
happ iness</w>
ch i
situ ation</w>
lar s</w>
A no
pa id</w>
int ro
Jap an</w>
la w
as tic</w>
1 5
to t
6 0</w>
repor ted</w>
mo b
wonder ful</w>
holi day</w>
C am
ver ti
p m</w>
j um
Ano ther</w>
F e
c us
t ect</w>
ud e</w>
pro ject</w>
pro duce</w>
M ore</w>
larg est</w>
st -
care er</w>
mo ving</w>
estiv al</w>
val u
re li
consid ered</w>
sid es</w>
ad em
dri ve</w>
st at
ff ic</w>
Euro pe</w>
dis covered</w>
Fren ch</w>
w ear</w>
re duce</w>
contin ue</w>
car d</w>
ti red</w>
te ach</w>
gi ves</w>
H i
1 2
ther n</w>
a im
re ach</w>
W i
1 7
lun ch</w>
inter national</w>
C l
me dic
exper ts</w>
piec e</w>
ha i</w>
ear ing</w>
foo t
un ity</w>
pol ice</w>
d ru
Califor nia</w>
lev els</w>
happ en</w>
ca used</w>
pr acti
cre ated</w>
re ma
lo ved</w>
war m</w>
sec re
at ur
am a</w>
On ce</w>
pro tect</w>
pres sure</w>
pic k</w>
ac tive</w>
st and
pic ture</w>
bo ard</w>
perf ect</w>
cho ice</w>
ty pe</w>
t en
re qu
aga z
acti vity</w>
o t</w>
ti t
w ell
dang erous</w>
pre t
medi a</w>
ec tive</w>
dol lars</w>
ho tel</w>
w id
p at
wor th</w>
posi tive</w>
do w</w>
ing ton</w>
rec ently</w>
loo ks</w>
indu stry</w>
glo bal</w>
brea k
bir th
O f</w>
Ch ildren</w>
Bec ause</w>
el ls</w>
ro le</w>
Q u
W ell</w>
re la
ex tre
beg in</w>
pl ant</w>
car ry</w>
fore ign</w>
d ings</w>
.m .</w>
sig n</w>
dis cus
bo x</w>
Sci enti
il li
w ood</w>
ey e</w>
li ed</w>
sing le</w>
li er</w>
pic tures</w>
ra in</w>
ag ing</w>
no tic
Australi a</w>
mob ile</w>
commun ity</w>
exp ensive</w>
ba g</w>
al low</w>
wa ste</w>
at e
tra ffic</w>
ing ly</w>
acc ep
wor k
fol low</w>
u ght</w>
G e
r ate</w>
f ly</w>
pas sed</w>
med ical</w>
sit ting</w>
Fir st</w>
w w
restaur ant</w>
par ticip
li ghts</w>
teach ing</w>
progr ams</w>
d eep</w>
su per
sm ile</w>
s li
sl ee
ess es</w>
ad a</w>
st anding</w>
dep end
ta ught</w>
sh ou
po se</w>
ea si
co m</w>
c row
mem ory</w>
trou ble</w>
as ks</w>
spec ies</w>
l and
1 8</w>
qu ar
c y
bl ue</w>
st ress</w>
low er</w>
becom ing</w>
or ig
wa iting</w>
po sed</w>
det er
t op
after noon</w>
it ch
im medi
ab ove</w>
A s
reali zed</w>
plan e</w>
T r
hom es</w>
enc ed</w>
our ces</w>
U.S .</w>
ex pl
eal th</w>
flo or</w>
comfor table</w>
an ks</w>
In st
di e</w>
Afric a</w>
ac ks</w>
re duc
me th
con n
M ay</w>
surv ey</w>
at or</w>
c au
ad verti
si ze</w>
ne t
id enti
ev ents</w>
web site</w>
let ter</w>
Z h
ste p</w>
S atur
ma il</w>
The ir</w>
bigg est</w>
f oun
ro oms</w>
a y
recei ve</w>
B u
19 7
ester n</w>
u an</w>
practi ce</w>
la w</w>
mis sion</w>
wa it</w>
allow ed</w>
vi ol
coun t</w>
s n
peri od</w>
Sun day</w>
j ud
desig ned</w>
ra ise</w>
in sp
gu e</w>
pre ci
A p
1 6</w>
a th
D av
spe ed</w>
B ar
i ght</w>
d ea
behavi or</w>
ang ry</w>
p sych
beg inning</w>
de g
eff ects</w>
bro ther</w>
g one</w>
w in</w>
f illed</w>
dra w
I s</w>
f er</w>
an tly</w>
Fri day</w>
z z
w el
ev ent</w>
S te
t un
c ir
ac e
D is
surpri sed</w>
o s
po li
posi tion</w>
n al</w>
friend ly</w>
adv ant
d el
ap ers</w>
e g
l ines</w>
m agaz
pollu tion</w>
sh own</w>
e qui
well -
b ought</w>
1 6
st ation</w>
te sts</w>
in a</w>
fi f
complet ely</w>
au di
v ement</w>
te a</w>
sel l</w>
st and</w>
pre sident</w>
l er</w>
i er</w>
avo id</w>
hou ses</w>
s old</w>
oc k</w>
Par k</w>
k il
in f
es day</w>
al es</w>
achi ev
ex tr
war ds</w>
val ue</w>
ough out</w>
st ra
co t
Inst ead</w>
el ess</w>
stud ying</w>
cou ple</w>
Scienti sts</w>
olog ical</w>
compu ters</w>
sit es</w>
R ob
vi ous</w>
serv ices</w>
S A</w>
norm al</w>
B i
par ty</w>
1 4</w>
foo ds</w>
f ell</w>
tri bu
f ear</w>
s tic
m eal</w>
li g
mee ting</w>
ann oun
l ad
direc tor</w>
ic ally</w>
arri ved</w>
reas ons</w>
feel ings</w>
A b
h y
doc tors</w>
o il</w>
prof essor</w>
c enter</w>
flow ers</w>
D ec
dre ds</w>
fa shi
rec ord</w>
reali ze</w>
eng ine</w>
pl ease</w>
in y</w>
hur t</w>
con vers
tou ri
pr ac
home work</w>
u tion</w>
o x
n ear
li br
il le</w>
P ri
sh oes</w>
re ly</w>
for get</w>
ear th
complet e</w>
an ti
re turned</w>
s at</w>
n ames</w>
birth day</w>
Dr .</w>
il ing</w>
fi ght</w>
e qu
Jap an
D a
tre at
hel ping</w>
wh ose</w>
uni ties</w>
gi ft</w>
ter ri
n e</w>
dri ver</w>
all er</w>
u ally</w>
pri l</w>
it self</w>
A pril</w>
s ev
rec or
teenag ers</w>
d ate</w>
S m
sib ility</w>
neigh b
easi er</w>
pl ea
o -
p en
f at</w>
Sh ang
O r
: 30</w>
li e</w>
an s
vide o</w>
Nor th</w>
si ster</w>
fur ther</w>
u gg
gre w</w>
sk y</w>
on y</w>
Can ada</w>
pl ans</w>
off ers</w>
go al</w>
dar k</w>
T wo</w>
M c
veget ables</w>
adv ice</w>
str ange</w>
k illed</w>
ch ild
p oo
Be fore</w>
st ers</w>
m it
t ar
rais ed</w>
J i
sk in</w>
k e
prof essi
z h
li kes</w>
Japan ese</w>
win dow</w>
tou ch</w>
build ings</w>
x ed</w>
chang ing</w>
L et</w>
reach ed</w>
S ec
wor ry</w>
ra id</w>
tran s
ong s</w>
vis itors</w>
dat a</w>
d ad</w>
1 3</w>
t -
saf ety</w>
rel ated</w>
T om</w>
sa d</w>
ra p
dow n
m ed</w>
Euro pe
a o</w>
underst anding</w>
s atis
res h</w>
econom ic</w>
believ ed</w>
C enter</w>
ren g
opport unity</w>
mess age</w>
ang er</w>
T u
notic ed</w>
lo ss</w>
ar s</w>
f ts</w>
s qu
ri de</w>
F i
sp read</w>
newsp aper</w>
influ ence</w>
uni ver
ti ce</w>
I s
grow th</w>
fin anci
est ed</w>
list en</w>
extr a</w>
Wa sh
f em
af raid</w>
ac tly</w>
know s</w>
cam er
Mar ch</w>
L ast</w>
si an</w>
st reng
min i
Fin ally</w>
com b
per haps</w>
plac ed</w>
increas ed</w>
gar den</w>
heav y</w>
ei gh
Satur day</w>
v al</w>
sw im
f our
3 0
off ered</w>
lit er
sal es</w>
Shang hai</w>
S ep
er ful</w>
de ta
S a
writ er</w>
intro duc
cont act</w>
W e
less ons</w>
m a</w>
l ab
custom ers</w>
ag s</w>
Y es</w>
w ar</w>
m ine</w>
com pared</w>
on ed</w>
H ol
b ing</w>
Ch ar
wor l
l ey</w>
clo ck</w>
A m
gener al</w>
pas s</w>
Mon day</w>
an al
ri se</w>
co sts</w>
chall eng
str ugg
see ing</w>
d res
or din
mean ing</w>
du e</w>
on ds</w>
develop ing</w>
ch ea
col or</w>
an a</w>
cor rec
mil lions</w>
fin ding</w>
anci ent</w>
relation ship</w>
st ly</w>
n ation</w>
l ands</w>
ex actly</w>
ap plic
1 ,
n ur
g es</w>
tel e
chec k</w>
cau ght</w>
bi ke</w>
Wash ington</w>
s ounds</w>
f ine</w>
di g
C orning</w>
num bers</w>
ac i
sud denly</w>
g ed</w>
d red</w>
st ar</w>
slow ly</w>
on to</w>
ear lier</w>
thr oughout</w>
movi es</w>
J ack</w>
str ong
pu t
break fast</w>
t or
ser ies</w>
r ange</w>
hun dreds</w>
earth qu
priv ate</w>
5 00</w>
O b
spea king</w>
im pres
O ther</w>
vari ous</w>
M an
follow ed</w>
cl ean
bir d</w>
mo de
deg ree</w>
pati ents</w>
19 6
us ers</w>
hou se
f resh</w>
Intern ational</w>
V i
M i
sti t
pr ices</w>
foc us</w>
b ul
fre e
vill age</w>
consid er</w>
N ew
sto res</w>
f ing
r ound</w>
ga in</w>
T e
. com</w>
fini shed</w>
eng ine
n ine</w>
im p
for ward</w>
care fully</w>
at ors</w>
pla ys</w>
hun dred</w>
form s</w>
Dav id</w>
x i
tel lig
mar ried</w>
com pla
Mr s.</w>
smo king</w>
d ance</w>
d ead</w>
Fr ance</w>
1 3
v ac
orig in
pre dic
jo in</w>
P lease</w>
z es</w>
t ory</w>
ni fic
continu ed</w>
Pre sident</w>
J une</w>
w ild</w>
clim ate</w>
con tribu
Stud ents</w>
s earch</w>
tow ards</w>
l uck
st ems</w>
mo m</w>
t our</w>
produc ed</w>
answ ered</w>
sp ok
pa ir</w>
invol ved</w>
dr inking</w>
ta x
lea ding</w>
disa pp
R ec
se par
scre en</w>
minut e</w>
gr ade</w>
t ro
gre ater</w>
D ad</w>
tot al</w>
pro mo
l augh
benef its</w>
w ish</w>
mil k</w>
jour ney</w>
c ases</w>
bus in
tel ls</w>
or ity</w>
ba sic</w>
r ying</w>
f arm</w>
w ind</w>
o o</w>
medic ine</w>
m outh</w>
lea ves</w>
v ic
p tion</w>
sp ending</w>
prev ent</w>
Ge or
en ge</w>
1 4
st age</w>
g old</w>
e es</w>
b at
ut y</w>
langu ages</w>
is s</w>
exp ect</w>
al though</w>
ama zing</w>
ac tions</w>
b an</w>
v ille</w>
ec ting</w>
sugg ests</w>
b lo
photo gra
happ ens</w>
y er</w>
bo at</w>
perform ance</w>
1 7</w>
exc iting</w>
wor ried</w>
me at</w>
k itch
is land</w>
spe ec
ow ner</w>
d ness</w>
b ank</w>
Ju ly</w>
l in
R us
Indi a</w>
st er
pass eng
immedi ately</w>
star s</w>
S ha
8 0</w>
partic ular</w>
h ic
pers on
A re</w>
hea d
Al so</w>
financi al</w>
condi tions</w>
plan et</w>
bu t
S y
use ful</w>
2 4</w>
y uan</w>
s now</w>
wor se</w>
sea son</w>
d ee
addi tion</w>
class room</w>
c ks</w>
cat ch</w>
c at</w>
e fore</w>
t end</w>
pp ing</w>
mach ine</w>
coo l</w>
C or
fa ster</w>
No v
i e</w>
foot ball</w>
2 00</w>
met ers</w>
communic ation</w>
auth or</w>
2 .
requi red</w>
dou b
M useum</w>
M ed
youn ger</w>
di et</w>
con nec
Wh ite</w>
wat ched</w>
g as</w>
ear n</w>
ur ity</w>
in tellig
r ace</w>
becom es</w>
surpri se</w>
ro ck</w>
lea ving</w>
competi tion</w>
O h</w>
a il</w>
sm aller</w>
on ic</w>
W al
r oun
f it</w>
de pres
arm s</w>
appear ed</w>
s is</w>
at ever</w>
sc en
in ju
p en</w>
mo d
cer tain
M ary</w>
on e-
eff ort</w>
app ear</w>
ty pes</w>
fru it</w>
H u
An g
l atest</w>
is m</w>
T ake</w>
C oun
s ongs</w>
pret ty</w>
sm art</w>
expla ined</w>
St re
for ce</w>
desig n</w>
ele ph
Ha ve</w>
o ds</w>
ic y
ach es</w>
L e
ri ver</w>
poin ts</w>
op ini
mo on</w>
tow ard</w>
ev idence</w>
i or</w>
g y
tu al</w>
ser ved</w>
f y</w>
G oo
s en</w>
resp ect</w>
as king</w>
Th ose</w>
s er</w>
our ce</w>
e et</w>
dam age</w>
Sep tem
produc t</w>
ne g
e at
s ch
ac y</w>
offici als</w>
g le</w>
t elling</w>
stric t</w>
radi o</w>
L a
ha m</w>
f all
dre ams</w>
stu died</w>
cul tural</w>
n on-
A t
te ens</w>
it or</w>
Y et</w>
S w
sub ject</w>
as ses</w>
experi ences</w>
ve hic
sig nific
si ght</w>
oc ean</w>
Ma ybe</w>
partic ularly</w>
on i
de si
sur face</w>
sy stems</w>
s ick</w>
Au g
kitch en</w>
in depend
On ly</w>
re p
inv est
foo t</w>
adv ent
Res ear
lim ited</w>
high -
dec ide</w>
sy m
stit ute</w>
fore st</w>
fin al</w>
encour age</w>
dang er</w>
Septem ber</w>
stre ets</w>
reg ular</w>
gl ass</w>
car ds</w>
W est</w>
piec es</w>
kee ping</w>
gre atest</w>
b on</w>
treat ment</w>
qui et</w>
extre m
de b
ci al</w>
anc ed</w>
sh el
Gre at</w>
pow erful</w>
G i
adul t</w>
z y</w>
list ening</w>
v ince</w>
pro per
our selves</w>
car ried</w>
Pro f
O ver</w>
Europe an</w>
A v
dest ro
call s</w>
struc tion</w>
restaur ants</w>
offici al</w>
mea su
ic h
h eat</w>
col ate</w>
up on</w>
view s</w>
ste ps</w>
form er</w>
ti z
sp ring</w>
si x
F l
w er</w>
no ise</w>
en se</w>
conf idence</w>
st ood</w>
re fl
n a</w>
cha ir</w>
bea uty</w>
me als</w>
ha m
c ell</w>
acc ident</w>
T ra
tur ning</w>
produc tion</w>
for d</w>
7 0</w>
0 ,000</w>
re lea
an e</w>
uni que</w>
pur cha
me ant</w>
le gs</w>
do ors</w>
ad es</w>
Ab out</w>
re f
bel ow</w>
p il
hi stor
deci sion</w>
b loc
b ags</w>
L o
in come</w>
curren t</w>
bro ken</w>
it ems</w>
p ment</w>
er -
at tit
let ters</w>
b ac
acc ess</w>
Every one</w>
play ers</w>
es tim
as soci
w oo
ag ree</w>
swim ming</w>
sel ling</w>
professi onal</w>
mp ic</w>
Oc to
includ es</w>
char ge</w>
th ou
s ong</w>
tur ns</w>
hab its</w>
wi se</w>
si ties</w>
no tes</w>
eff orts</w>
c ells</w>
sor ry</w>
s car
fi g
St ate</w>
di t</w>
cro s
materi al</w>
c ket</w>
a head</w>
M id
temper ature</w>
ro l
Wi th
bab ies</w>
extrem ely</w>
en g</w>
D r</w>
pl astic</w>
li ked</w>
luck y</w>
econom y</w>
Resear chers</w>
L i</w>
shop s</w>
ang es</w>
individ ual</w>
de st</w>
Y ear</w>
Octo ber</w>
terri ble</w>
b icy
gener ation</w>
dist ance</w>
w earing</w>
enti re</w>
di r
an xi
M u
19 5
ic ity</w>
a k
K ore
to -
ordin ary</w>
mem ber</w>
ket ball</w>
fre qu
for tun
se at</w>
child hood</w>
pre pared</w>
ex hi
moun tain</w>
e gg
w ild
ti g
por ts</w>
bri dge</w>
Gre en</w>
dis ea
b right</w>
W in
long -
libr ary</w>
jo y</w>
ca uses</w>
photo s</w>
fl ying</w>
cap ital</w>
f light</w>
bu ying</w>
att emp
t all</w>
organi zation</w>
L ater</w>
20 10</w>
w est</w>
Oly mpic</w>
C an</w>
st one</w>
p t</w>
ma ybe</w>
fe wer</w>
f o
ser ve</w>
om et
lad y</w>
ad ly</w>
ent ually</w>
fac es</w>
be d
Stre et</w>
ar ies</w>
ad d</w>
m ic
increas ing</w>
ch er</w>
sof t</w>
par ent</w>
fil ms</w>
equi pment</w>
dro p</w>
tic ket</w>
s low</w>
d ry</w>
communic ate</w>
Jan uary</w>
Dec ember</w>
st on</w>
pro g
go als</w>
g ency</w>
col or
exc ell
deter min
l es
g ar</w>
tele phone</w>
pic ked</w>
allow s</w>
t ask</w>
scienti st</w>
charac ter</w>
S cot
sol ve</w>
C entr
su pp
provid es</w>
agre ed</w>
mat h</w>
convers ation</w>
un usual</w>
form ed</w>
ac adem
A sia</w>
no tice</w>
P u
cl early</w>
re pe
no te</w>
S an</w>
neg ative</w>
materi als</w>
Par is</w>
ma ster</w>
gh tly</w>
exc ited</w>
includ ed</w>
gener ally</w>
clo sed</w>
W ar</w>
em er
eff ective</w>
d es</w>
mi gr
grow n</w>
Mic ha
sub jects</w>
S i
ati c</w>
F or
off ic
her self</w>
Ti me</w>
w all</w>
respon sible</w>
fin dings</w>
be ach</w>
E m
cour ses</w>
bir th</w>
H ouse</w>
fun c
experi enced</w>
W illi
t ears</w>
s co
m useum</w>
lar ger</w>
Sm ith</w>
Aug ust</w>
Res earch</w>
robo t</w>
mode l</w>
lo ad</w>
la un
h arm
sh ort
con duc
pati ent</w>
cho ices</w>
certain ly</w>
w illing</w>
volunte ers</w>
sta ff</w>
experim ent</w>
3 .
n er
be l</w>
progr am
manag er</w>
bigg er</w>
B er
t a</w>
qu ali
fa il
Th ough</w>
R a
H ealth</w>
univer sities</w>
ti ll</w>
smo ke</w>
Wh o</w>
P ol
G ar
2 1</w>
ti n</w>
sugg est</w>
neigh bor
it able</w>
gu es</w>
chall enge</w>
B C</w>
y es</w>
travel ing</w>
o be
magaz ine</w>
k id</w>
fem ale</w>
box cars</w>
O r</w>
star ting</w>
f ro
disea ses</w>
ati c
aff ect</w>
acc ept</w>
1 1
sugg ested</w>
kil omet
cl aim
cho colate</w>
speec h</w>
p et</w>
it es</w>
in t</w>
ap preci
ta ste</w>
be y
K ing</w>
fam ili
f la
m ul
Wh ere</w>
Micha el</w>
mar k</w>
g en</w>
b b
Li fe</w>
fig ure</w>
bey ond</w>
M om</w>
v it
sm ell</w>
environ mental</w>
um s</w>
res ources</w>
gr y</w>
p age</w>
differ ences</w>
bas ketball</w>
anal y
T a
tec h
achi eve</w>
Pe ter</w>
pot ential</w>
en ess</w>
em an</w>
t iny</w>
secre t</w>
k ill</w>
es cap
y ers</w>
el low</w>
G ames</w>
read ers</w>
earthqu ake</w>
direc tly</w>
rep lied</w>
E duc
scienti fic</w>
poin ted</w>
B ro
hear ing</w>
D on
vi ously</w>
tw ice</w>
sp here</w>
H en
expla in</w>
ai m</w>
Be sides</w>
th inks</w>
Col lege</w>
anc ing</w>
fi gh
Ger many</w>
B ra
ow ners</w>
l au
201 2</w>
dro pped</w>
answ ers</w>
Th ur
tic kets</w>
pl enty</w>
issu e</w>
import ance</w>
heal th
H ong</w>
9 0</w>
fashi on</w>
tru th</w>
m ary</w>
e m</w>
Per haps</w>
a h</w>
r ang
plan ning</w>
c li
al co
vari ety</w>
p h</w>
dri vers</w>
p ounds</w>
clas sm
L in
slee ping</w>
pur pose</w>
vis ited</w>
G od</w>
u h</w>
tal ked</w>
hor se</w>
charac ters</w>
bo dies</w>
tech ni
sm iled</w>
po st</w>
an o</w>
sur roun
pul led</w>
relation ships</w>
put ting</w>
egg s</w>
4 5</w>
near by</w>
as sist
a .m.</w>
audi ence</w>
an ic</w>
E ast</w>
ro ads</w>
est ab
des k</w>
con c
le -
ec t
a str
mista kes</w>
every where</w>
H el
B e</w>
thous and</w>
str ation</w>
goo ds</w>
aw are</w>
announ ced</w>
1 9</w>
tre at</w>
gre at
benef it</w>
Geor ge</w>
sh ir
excell ent</w>
nu tri
im age</w>
G ood</w>
repor ts</w>
week end</w>
re pres
eff ici
d a</w>
conn ected</w>
r an
play er</w>
organi z
i red</w>
f ill</w>
won der</w>
remem b
l -
fin ish</w>
fiel ds</w>
al d</w>
touri sts</w>
re sid
l on
In stitute</w>
B l
un k</w>
high est</w>
fir m</w>
famili ar</w>
f ans</w>
electr icity</w>
Thur s
2 5
tre n
opport unities</w>
inter view</w>
fa ir
mo thers</w>
im possible</w>
F a
st ates</w>
pl eas
sha pe</w>
relea sed</w>
re comm
l ying</w>
Hi gh</w>
r ates</w>
pr oud</w>
gu ide</w>
g ol
employ ees</w>
cre dit</w>
camer a</w>
con st
cl ing</w>
K ong</w>
sec urity</w>
or ing</w>
dr inks</w>
2 2</w>
in -
ex ic
Li ke</w>
J ames</w>
oc cu
newsp apers</w>
k y</w>
dow s</w>
S ud
cam p
am ing</w>
Prof essor</w>
O ff
ci tiz
sig ns</w>
pro mis
o ts</w>
emo tional</w>
cre ative</w>
car bon</w>
c in
Sci ence</w>
L it
p ical</w>
ad op
a war
Nov ember</w>
3 5</w>
tr act</w>
sec onds</w>
p are</w>
gar d
advant age</w>
W ang</w>
Ob ama</w>
G o
B ill</w>
m it</w>
T im
or anges</w>
fun ny</w>
dru gs</w>
S ing
clo thing</w>
F estival</w>
Av on</w>
mess ages</w>
f estival</w>
exc ept</w>
coo king</w>
show ing</w>
rema ins</w>
g ent
Ang el
mir a</w>
gu id
friend ship</w>
for ced</w>
M exic
um ents</w>
rec y
high ly</w>
fi x</w>
farm ers</w>
lea ders</w>
ac ked</w>
El mira</w>
prac tic
mic ro
lau gh</w>
hel p
Ap ple</w>
ph y</w>
ologi st</w>
hand ed</w>
di an</w>
re ality</w>
pre par
ing -
accep ted</w>
W ed
ab ilities</w>
sp ac
set t
star ts</w>
um ent</w>
com mer
mo vement</w>
polic y</w>
fi shing</w>
clu b</w>
as p
P S
sing ing</w>
ro r</w>
m or
imag ine</w>
R ic
sig n
an ish</w>
wa ke</w>
s wi
at mo
ali ve</w>
nov el</w>
to m</w>
clo ser</w>
E d
y n
n et</w>
l eep</w>
So on</w>
S im
sen ior</w>
s ource</w>
care ful</w>
W at
shar ed</w>
li gh
ri age</w>
or ange</w>
mo stly</w>
in dic
200 8</w>
F ace
Thurs day</w>
Ger man</w>
t an
enter ed</w>
en ever</w>
ch ur
l an
gi fts</w>
ex plo
contro l
n erv
vac ation</w>
sp ort
m ent
provid ed</w>
th -
r icul
les son</w>
Ri ver</w>
mem ories</w>
mat ch</w>
I N
st ea
sal t</w>
enjo yed</w>
U SA</w>
moun tains</w>
au tom
re main</w>
m el
g er
beg ins</w>
t ee
sol di
issu es</w>
gu n</w>
boo k
t ext</w>
c ut
wa ves</w>
ing ing</w>
wh atever</w>
hun gry</w>
ho l</w>
gl asses</w>
fa ir</w>
con v
a id</w>
Ch ic
sm ar
qu ick</w>
n ative</w>
ho st</w>
c ru
bre ad</w>
tru ly</w>
Oly m
Fe br
worl d
thou ghts</w>
mach ines</w>
h id
farm er</w>
a be
leg al</w>
kilomet ers</w>
exper t</w>
dig ital</w>
zh ou</w>
y ellow</w>
stra ight</w>
de f
wh om</w>
sa ved</w>
robo ts</w>
particip ants</w>
dev ice</w>
aff ected</w>
X i
H un
pleas ant</w>
condi tion</w>
col ors</w>
M e
ac count</w>
Jo hn
set ting</w>
pain ting</w>
holi days</w>
quar ter</w>
poo l</w>
L ook</w>
tw o-
tran sl
situ ations</w>
requ ire</w>
R ea
B rown</w>
to ys</w>
ear ed</w>
cul tures</w>
ab road</w>
G o</w>
y e</w>
pic s</w>
believ es</w>
S ou
2 3</w>
u als</w>
passeng ers</w>
on ing</w>
introduc ed</w>
R em
M oun
4 .
vi sion</w>
ti ps</w>
tee th</w>
is tic</w>
Face book</w>
en ting</w>
fa iled</w>
col lea
lea der</w>
Febr uary</w>
de al
att ack</w>
tr ade</w>
tr ack</w>
sta yed</w>
ne l</w>
rel ati
la ke</w>
hol ding</w>
de ed</w>
comm it
c up</w>
b ear</w>
T ur
sw eet</w>
prog ress</w>
loc ated</w>
gradu ate</w>
b es</w>
As soci
so il</w>
g ing</w>
al -
ter ms</w>
pho to</w>
fe ed</w>
chi ef</w>
ch ick
a z
H er
inv ited</w>
in struc
ci l</w>
origin al</w>
kee ps</w>
ke ys</w>
bro ke</w>
ans ville</w>
ad ing</w>
Wed n
W estern</w>
speci fic</w>
p ack
es sion</w>
bro ad
manag ement</w>
v el
lo sing</w>
e ed</w>
dro ve</w>
Goo gle</w>
D ansville</w>
Afric an</w>
200 9</w>
war ming</w>
respon se</w>
fi gu
3 00</w>
0 -
t ten</w>
pre pare</w>
attrac tive</w>
Mar k</w>
2 8</w>
s ear
jo ined</w>
pos sib
poli tical</w>
mis s</w>
en n
e ans</w>
ven i
ty -
ici ous</w>
e x</w>
Chic ago</w>
acc id
ac comp
expres s</w>
Sud denly</w>
Har v
valu able</w>
ob jects</w>
atmo sphere</w>
Ma ke</w>
wel come</w>
th row</w>
d om
correc t</w>
tain ment</w>
stor m</w>
recogni ze</w>
disa p
and y</w>
ad ed</w>
1 00
survi ve</w>
mit ted</w>
har dly</w>
fail ure</w>
deta ils</w>
bl ind</w>
att end</w>
I ts</w>
pa y
classm ates</w>
sup por
se ts</w>
respon sibility</w>
har der</w>
cam pa
P al
wor st</w>
streng th</w>
per form</w>
pe ts</w>
par ks</w>
ici al</w>
direc tion</w>
L u
w estern</w>
pa ying</w>
adv is
too ls</w>
fi re
am in</w>
in sec
hop es</w>
fe els</w>
ev entually</w>
Pr ice</w>
y al</w>
sh oc
expl ore</w>
ess ed</w>
th i
s and</w>
m es</w>
T ec
R om
Mr s</w>
B lack</w>
stand ard</w>
m ale</w>
l in</w>
k a</w>
fac tors</w>
emp ty</w>
Bo th</w>
tri c</w>
r ac
liter ature</w>
con veni
comfor t</w>
ester day</w>
dev ices</w>
anc y</w>
vi a</w>
ic als</w>
every day</w>
ev ol
coll ection</w>
c ats</w>
gg ing</w>
con centr
car rying</w>
D o
fac tory</w>
em ail</w>
C a
st res
li sh
world wide</w>
mis sing</w>
k no
dis cover</w>
Th ree</w>
Ph one</w>
ologi sts</w>
ir ing</w>
er ve</w>
encour aged</w>
centr al</w>
attit ude</w>
Is land</w>
I tal
main ly</w>
in j
imp act</w>
Rob ert</w>
writ ers</w>
th anks</w>
th ank</w>
no se</w>
ent ary</w>
ad ap
Y oun
help ful</w>
bal ance</w>
au l</w>
at oes</w>
s ent
in k
celebr ate</w>
Tu esday</w>
I t
Par ents</w>
ex am</w>
der ly</w>
ad dress</w>
sel y</w>
se qu
cre ating</w>
Ital y</w>
Educ ation</w>
3 -
w it
pre vious</w>
qu es</w>
gu ests</w>
descri bed</w>
spo ke</w>
pe ace</w>
bot tom</w>
L os</w>
sa ving</w>
op ening</w>
oc ca
deci sions</w>
any where</w>
a p</w>
Wedn esday</w>
swi m</w>
electr onic</w>
run s</w>
pos ite</w>
p .m.</w>
e ther</w>
a ys</w>
z en</w>
r out
or d
de fin
ri t</w>
mar kets</w>
fe atures</w>
educ ational</w>
r ough</w>
B ath</w>
tw are</w>
seri ously</w>
s ort</w>
pri mary</w>
alco hol</w>
J en
sig ned</w>
s ity</w>
op e</w>
f it
ar ch
academ ic</w>
vir us</w>
Th om
B a
vis iting</w>
requi res</w>
tre ated</w>
te e</w>
pre fer</w>
S ur
M il
K ids</w>
sh or
plan ned</w>
p ath</w>
go tten</w>
fortun ately</w>
ar ity</w>
De partment</w>
sur ance</w>
great ly</w>
C u
sal e</w>
ro se</w>
free dom</w>
dec ades</w>
d ates</w>
challeng es</w>
2 6</w>
t asks</w>
reli gi
r ice</w>
der ed</w>
br ings</w>
M al
s outh</w>
i st</w>
desi re</w>
at ory</w>
Th er
T ry</w>
meth od</w>
law s</w>
co -
arri ve</w>
mar ks</w>
li z
ha bit</w>
cam p</w>
arti st</w>
Sp anish</w>
ra in
es tig
19 4
direc t</w>
M in
A ir
tr ust</w>
fore sts</w>
P aul</w>
Olym pics</w>
ru le</w>
ri sing</w>
h e
ent y-
clim b</w>
youn g
tra ined</w>
suff er</w>
s m</w>
min ds</w>
man aged</w>
Com m
sh oo
rela x</w>
o red</w>
lim it</w>
grad es</w>
B ir
1 ,000</w>
su gar</w>
ill ness</w>
ch ances</w>
arti sts</w>
win ning</w>
po cket</w>
emo tions</w>
reg ul
mista ke</w>
ex change</w>
bi tion</w>
be at</w>
b ill</w>
aff ord</w>
C ap
19 3
pu bl
in ner</w>
impro ved</w>
harm ful</w>
ex ec
L ea
pu p
oun d
on able</w>
intellig ence</w>
M ini
r are</w>
know ing</w>
h ole</w>
co very</w>
c ook</w>
7 5</w>
ju ice</w>
dem and</w>
co ast</w>
adverti s
aci fic</w>
S ch
tiv ely</w>
fri ght
tw enty</w>
t ons</w>
shar ing</w>
s ad
expres sion</w>
bicy cle</w>
ac ts</w>
y ard</w>
te sted</w>
p ers</w>
f ee
concer ned</w>
off ering</w>
mar ket
dir ty</w>
appro ach</w>
a -
D ear</w>
W om
J er
n or</w>
e- mail</w>
busin esses</w>
Zh ang</w>
P acific</w>
the ory</w>
ow er</w>
complet ed</w>
ci gar
prin t</w>
n in
N A
v e-
sup ply</w>
sof tware</w>
mar riage</w>
depres sion</w>
r ou
Angel es</w>
strong er</w>
protec tion</w>
meth ods</w>
b ow
air port</w>
Ji m</w>
D u
Ac adem
schoo l
hol ds</w>
With out</w>
Indi an</w>
C E
su it</w>
sp i
increas ingly</w>
app ears</w>
Youn g</w>
E v
un less</w>
net work</w>
l ar</w>
im ages</w>
i an</w>
S ta
R u
Be ing</w>
2 4
mul ti
l uck</w>
S um
O K</w>
F ood</w>
7 .
ww w
t les</w>
n it
str ang
bro thers</w>
St u
w et</w>
signific ant</w>
po is
mo tiv
dru g</w>
pre fer
inv ented</w>
O thers</w>
plea sure</w>
compl ex</w>
bot tle</w>
ab led</w>
W r
T ex
K en
fall ing</w>
Ro ad</w>
D oc
le ts</w>
id a</w>
cre am</w>
an as</w>
all ey</w>
wa ve</w>
nerv ous</w>
gu ess</w>
der al</w>
cho sen</w>
underst ood</w>
stic k</w>
sti tu
n ings</w>
dra w</w>
cri min
bo ss</w>
ant a</w>
G ener
un able</w>
pri ze</w>
inv estig
individ uals</w>
chem icals</w>
Th ank</w>
S erv
G et</w>
pres s</w>
con sci
se es</w>
si st</w>
r is</w>
nor th</w>
__ __
Harv ard</w>
201 4</w>
reg ularly</w>
oc cur
h at</w>
M iss</w>
Ex per
t on
sol ar</w>
gr ass</w>
enter tainment</w>
wid ely</w>
tel s</w>
pro per</w>
pro jects</w>
ght -
concer n</w>
P a
pa int
p ages</w>
inter ests</w>
2 7</w>
s now
et c</w>
op posite</w>
my st
chur ch</w>
S en
F am
rememb ered</w>
or row</w>
dre w</w>
dev o
201 3</w>
www .
w alls</w>
v oc
n ations</w>
fu el</w>
su sp
ri d</w>
Li u</w>
m -
l ec
ic ks</w>
employ ment</w>
ap ply</w>
ann ual</w>
Willi am</w>
L ou
tw el
tern s</w>
sol ution</w>
sh y</w>
tradi tion</w>
se as</w>
jum ped</w>
insec ts</w>
happ ening</w>
chea p</w>
ber g</w>
advent ure</w>
P i
A sian</w>
y a</w>
ma kers</w>
independ ent</w>
M other</w>
L oc
opini on</w>
k -
gen e
bac ter
ac ting</w>
J ack
Bra z
sport ation</w>
reduc ed</w>
n ar
emer gency</w>
di a</w>
consum ers</w>
chem ical</w>
bus es</w>
R E
Or g
sta irs</w>
New s</w>
It ali
Australi an</w>
spok en</w>
prin ci
conf ident</w>
volunte er</w>
valu es</w>
oper ation</w>
le g</w>
bl ed</w>
Fl or
surpri sing</w>
struc ture</w>
regi on</w>
cigar et
suff ering</w>
pro ve</w>
mus ical</w>
f alls</w>
el derly</w>
cri ed</w>
cr ying</w>
R ed</w>
Mar s</w>
wa it
tran sport</w>
thre e-
mod els</w>
elec tric</w>
ea st</w>
x ing</w>
low -
exp ect
201 5</w>
ch ose</w>
a kes</w>
speci ali
ri ghts</w>
prof it</w>
loc ation</w>
li shed</w>
c ry</w>
temper atures</w>
gre en
fore ver</w>
f le
M er
2 ,
w ine</w>
l oud</w>
it ation</w>
connec tion</w>
bra ins</w>
tri ps</w>
t um
re gar
l eng
inju red</w>
Mexic o</w>
th in</w>
rais ing</w>
r ic
pul l</w>
cour age</w>
ar tic
ar ily</w>
v ements</w>
scen e</w>
fac ts</w>
cri tici
bed room</w>
Mid dle</w>
win dows</w>
tax i</w>
squ are</w>
recor ds</w>
Gr and
sec ond
doub t</w>
cont ent</w>
H um
mi se</w>
dol lar</w>
adverti sing</w>
Tim es</w>
stand ards</w>
escap e</w>
Tec hn
N e
B et
sym bo
expla ins</w>
th ered</w>
. m</w>
spi rit</w>
so cc
paint ings</w>
cro ps</w>
c ash</w>
K eep</w>
measu res</w>
it ary</w>
cer em
bl es</w>
ar ts</w>
T ai
stat ement</w>
sh ot</w>
e k</w>
d ancing</w>
artic le</w>
tal ent</w>
st ock</w>
laugh ed</w>
dres sed</w>
cut ting</w>
citiz ens</w>
ach ed</w>
9 9</w>
socc er</w>
sch ol
ban anas</w>
nat ur
Flor ida</w>
u tive</w>
spo t</w>
in surance</w>
Hen ry</w>
An y
6 5</w>
ul t</w>
ell ed</w>
thre at
lea ds</w>
ho tels</w>
f ar
201 1</w>
wa ited</w>
s and
offic er</w>
ear ning</w>
conf er
collea gues</w>
Associ ation</w>
separ ate</w>
mea sure</w>
fin ds</w>
coun ts</w>
astr on
M at
shou ted</w>
shou l
resid ents</w>
ref used</w>
le st</w>
del icious</w>
de partment</w>
ap p</w>
con struction</w>
Wom en</w>
Ho tel</w>
Har ry</w>
m en
exi st</w>
cal m</w>
No bel</w>
D esp
y esterday</w>
wild life</w>
sp ir
row ing</w>
dea ths</w>
B el
w ed
sk ill</w>
indu stri
de gre
ac ted</w>
I m
Ar t</w>
8 .
d ying</w>
B oo
sugg es
ri ding</w>
provid ing</w>
organiz ations</w>
og ra
lo ves</w>
jum p</w>
dis h</w>
crow d</w>
continu es</w>
appear ance</w>
resear cher</w>
l ers</w>
in str
i P
gi ant</w>
experim ents</w>
T E
Can a
neighbor hood</w>
coll ected</w>
bat ter
ar g
accid ents</w>
S k
the at
Mi ke</w>
tea ms</w>
ris m</w>
organi zed</w>
L ake</w>
H app
wor ker</w>
un happy</w>
ta ined</w>
life style</w>
beli ef</w>
ad ays</w>
Pri ze</w>
Bi g</w>
ori ties</w>
li f
happ ier</w>
eleph ants</w>
cor ner</w>
I I</w>
ther efore</w>
sh o
pro mise</w>
neighb ors</w>
every body</w>
b ud
anxi ety</w>
y outh</w>
t ary</w>
pi ano</w>
leg es</w>
degre es</w>
Pu bli
A N
wea k</w>
ur ban</w>
applic ation</w>
Su ch</w>
S till</w>
C ha
2 9</w>
p al
n is</w>
increas es</w>
i st
custom er</w>
Bo b</w>
st ations</w>
p ush</w>
P at
Jan e</w>
pro ved</w>
com par
clean ing</w>
S :</w>
re -
p ack</w>
exc it
cover ing</w>
and a</w>
Desp ite</w>
twel ve</w>
o '
ly wood</w>
figh ting</w>
S al
Fr anci
st uck</w>
sc o</w>
ren t</w>
foc used</w>
fl ic
coll ect</w>
bas is</w>
ath let
V ir
T al
C lu
u ries</w>
sup posed</w>
call ing</w>
box car</w>
b ar</w>
on e
ec h
ear ned</w>
W il
Tex as</w>
S everal</w>
In ter
u fac
travel ed</w>
ta ining</w>
st am
spok es
par king</w>
lo vely</w>
inst ance</w>
gradu ates</w>
f lies</w>
be es</w>
as leep</w>
U :</w>
Rem ember</w>
N ext</w>
y o</w>
ta il</w>
str ate
s am
recogni zed</w>
en sure</w>
4 00</w>
hab it
w ash</w>
s wee
c ents</w>
br inging</w>
br an
b adly</w>
Ther efore</w>
G l
Dis ney</w>
ste in</w>
or ders</w>
ni e</w>
it ely</w>
hor ses</w>
ch ee
Lit tle</w>
G ol
win ner</w>
war ning</w>
t ough</w>
hon or</w>
fac ed</w>
an -
tren d</w>
recor ded</w>
mus ici
four th</w>
ag g
S pr
Am ong</w>
9 .
vehic les</w>
ten nis</w>
hom eless</w>
grand mother</w>
dep ends</w>
S pain</w>
Academ y</w>
par ties</w>
ol dest</w>
ma p</w>
ap ple</w>
sta ying</w>
re ti
is lands</w>
cop y</w>
ca using</w>
su me</w>
sou thern</w>
soldi ers</w>
pri son</w>
prac tical</w>
nor thern</w>
lon ely</w>
her o</w>
en th
cy cle</w>
F ree</w>
0 .
tr y
ra il
har m</w>
dec or
be ars</w>
ar rang
U S
A R
w is
tre as
l ay</w>
ill er</w>
ef s</w>
difficul ties</w>
z er
perform ed</w>
n on
mo ves</w>
lin ked</w>
fic tion</w>
fa il</w>
f loo
determin ed</w>
cour t</w>
Kore a</w>
200 7</w>
ob vious</w>
k es
flow er</w>
curren tly</w>
acc ur
V ic
Jo e</w>
l o</w>
gu ar
discus s</w>
clim bing</w>
char ity</w>
be ings</w>
ba th
arch it
Un fortunately</w>
te sting</w>
port ers</w>
id ly</w>
di shes</w>
Org ani
po st
da y
cra zy</w>
c ell
W all</w>
Oc ean</w>
L ove</w>
L ee</w>
B en
6 .
5 -
wal ks</w>
ty pical</w>
campa ign</w>
and -
Franci sco</w>
z oo</w>
s y</w>
figu res</w>
con tains</w>
ca st</w>
w ealth</w>
si on
person ality</w>
n one</w>
loc k</w>
l a</w>
em bar
des ert</w>
A I
sty les</w>
s '
re fer
pat terns</w>
dis covery</w>
des p
un t</w>
the me</w>
popul arity</w>
N i
t ori
maj ority</w>
mag ic</w>
fac ing</w>
cl ever</w>
agre ement</w>
Gr ou
9 5</w>
2 -
po p</w>
bur ning</w>
O p
tion ally</w>
rema ined</w>
n ation
destro yed</w>
bacter ia</w>
ag ricul
5 .
2 ,000</w>
1 -
p an
advant ages</w>
Wh ether</w>
Da ily</w>
B en</w>
serv ation</w>
re v
ob ject</w>
jour n
e dy</w>
R oo
s .
pol ite</w>
op en
long- term</w>
descri be</w>
charac ter
O x
qui et
p uni
man age</w>
m att
hon est</w>
frequ ently</w>
fl u</w>
consid er
associ ated</w>
addi tional</w>
ad dic
Com p
poin t
is a</w>
an no
ach ing</w>
wh enever</w>
succ eed</w>
sen ding</w>
publ ic
gr am
form al</w>
con tain</w>
col leges</w>
brea king</w>
at tract</w>
a partment</w>
Char les</w>
o l</w>
l ink</w>
hea ds</w>
cri me</w>
con flic
chick en</w>
back ground</w>
C O
st ands</w>
rou te</w>
pu zz
ox y
ul l</w>
su itable</w>
ri vers</w>
pres ents</w>
pp er</w>
o' clock</w>
happ ily</w>
Z eal
Hol lywood</w>
B as
u si
kin dness</w>
amoun ts</w>
S ea</w>
P la
Exper ts</w>
C ome</w>
sist ers</w>
s at
cent uries</w>
Su n</w>
well- known</w>
st 1</w>
shir t</w>
s le
photogra ph
la d</w>
equ al</w>
disa ster</w>
desp ite</w>
b rown</w>
S ar
Centr al</w>
to y</w>
sing er</w>
s la
ro ll</w>
r a</w>
pup ils</w>
du le</w>
crow ded</w>
conn ect</w>
b its</w>
wat er
tr uck</w>
tion ary</w>
re r</w>
re lease</w>
ma r</w>
fru its</w>
fing ers</w>
bre ath</w>
x im
week ends</w>
web sites</w>
tom orrow</w>
sh all</w>
pas sing</w>
insp ired</w>
f ant
all et</w>
ag ement</w>
ad ding</w>
ac king</w>
Ha ving</w>
C re
techni ques</w>
g an</w>
fl at</w>
engine ering</w>
camp us</w>
So ci
Itali an</w>
tra ins</w>
magaz ines</w>
h all</w>
difficul ty</w>
sk i
pre fix</w>
deter mine</w>
d ney</w>
ani a</w>
We b</w>
W ill</w>
ver sion</w>
tran sportation</w>
t ex
k o
est er</w>
ec tions</w>
Th ank
Pro vince</w>
touri st</w>
tou ched</w>
li qu
draw ing</w>
c ue</w>
bi a</w>
ag ency</w>
Thom as</w>
F ore
pain t</w>
on a</w>
li ft</w>
embar r
da m</w>
cre atures</w>
ban ks</w>
a part</w>
o d
man ufac
e ball</w>
co ach</w>
attrac ted</w>
s on
extre me</w>
cri sis</w>
cha m
Sp ace</w>
vehic le</w>
but ter
bor ing</w>
E gy
s ources</w>
possib ly</w>
l ic
V ol
ri c</w>
norm ally</w>
ni ghts</w>
natur ally</w>
mil itary</w>
h ate</w>
dis abled</w>
dee ply</w>
M or
D N
B ur
A ma
re ment</w>
rap idly</w>
part ner</w>
mom ents</w>
health ier</w>
conduc ted</w>
cal ories</w>
S am</w>
p apers</w>
oo d
ca ke</w>
W ould</w>
Sing ap
sur g
suff ered</w>
pu ts</w>
o ther
no body</w>
neighb or</w>
it ting</w>
eleph ant</w>
O pen</w>
M is
vide os</w>
too l</w>
some where</w>
m ood</w>
coun try
coo per
c ross</w>
al tern
ab ul
Singap ore</w>
ta x</w>
in ations</w>
exam s</w>
ep tion</w>
e try</w>
blo g</w>
L angu
D ev
il es</w>
hosp it
g ate</w>
dr am
S e
Don ald</w>
D ar
re min
ox ide</w>
invest ment</w>
dec ade</w>
arti cles</w>
W ar
w ol
pres ented</w>
inv ention</w>
hop ed</w>
estim ated</w>
enth usi
co at</w>
tw enty-
ini ti
grand father</w>
ber t</w>
Rus sia</w>
Clu b</w>
p .</w>
ast er
, 00
tic ally</w>
sev en
over weight</w>
bb ish</w>
V al
view ed</w>
ti ous</w>
ques tion
im migr
gen es</w>
eat en</w>
al a</w>
T our</w>
Ste ve</w>
: 00
proper ly</w>
pe are</w>
p hi
kes peare</w>
Bo ston</w>
sen si
re mo
n esses</w>
inju ries</w>
control led</w>
ati vity</w>
ap ped</w>
Zeal and</w>
Th ink</w>
Sha kespeare</w>
D en
5 ,000</w>
z on</w>
u n</w>
th ly</w>
sen s
out door</w>
i ther</w>
appro pri
Mu sic</w>
200 5</w>
t ol
shoc ked</w>
per su
it ch</w>
cu ri
ar my</w>
Sy dney</w>
H am
1 50</w>
t ories</w>
quiet ly</w>
n -
enti ons</w>
conc ept</w>
Sum mer</w>
ti tle</w>
ter n</w>
str anger</w>
pl at
m use
m ur
di o</w>
ch at</w>
centr e</w>
vol can
t ext
sco res</w>
re ments</w>
id es</w>
g lad</w>
ed ge</w>
commer cial</w>
co vers</w>
attemp t</w>
assist ant</w>
y land</w>
gu y</w>
dep end</w>
Techn ology</w>
sli ghtly</w>
ser ving</w>
ci es</w>
w ei
ru shed</w>
ru bbish</w>
s em
matt ers</w>
id ing</w>
entr ance</w>
const antly</w>
confer ence</w>
c as
S am
th ick</w>
eal thy</w>
dam aged</w>
comm unities</w>
b it
adv ance</w>
D id</w>
promo te</w>
jud ge</w>
j i
fel low</w>
cl ou
c tic</w>
bur n</w>
V en
Uni on</w>
F re
tot ally</w>
sy mp
dis play</w>
J our
5 5</w>
1 st</w>
u es</w>
success fully</w>
r ural</w>
pro te
fi xed</w>
ex plan
es sm
ag on</w>
St ar
K ar
I S
Col um
201 6</w>
wonder ed</w>
we b</w>
teenag er</w>
st ances</w>
purcha se</w>
life time</w>
U se</w>
T er
S tr
M s.</w>
H ou
B est</w>
20 00</w>
r ab
pu shed</w>
hop ing</w>
g ro
c el
DN A</w>
2 3
wh er
vi l</w>
th us</w>
tal ks</w>
sti c</w>
s giving</w>
ga ined</w>
con fir
appreci ate</w>
C oo
tom s</w>
sm iling</w>
oxy gen</w>
market ing</w>
h m</w>
em is
brea thing</w>
b ol
Al ice</w>
plan es</w>
opini ons</w>
Sec ond</w>
John son</w>
shar es</w>
o ke</w>
fre sh
ec tively</w>
cir c
bl ing</w>
5 0
up set</w>
strugg le</w>
sev ere</w>
nur se</w>
mis sed</w>
ex po
enjo ying</w>
Qu een</w>
3 D</w>
stre t
pos sibility</w>
low ing</w>
hand le</w>
con sequ
car to
allow ing</w>
adv anced</w>
M ad
st y</w>
ris ks</w>
pos s
dest ination</w>
c k
T ok
mu m</w>
har d
f ying</w>
wed ding</w>
wat ers</w>
thir ty</w>
sud den</w>
strang ers</w>
produc ing</w>
ph en
effici ent</w>
che dule</w>
Vir g
Ox ford</w>
An im
sh ine</w>
ing u
in o</w>
h oo
h ide</w>
estab lished</w>
clo sely</w>
w an</w>
ro cks</w>
p um
larg ely</w>
in si
ful l-
ess ing</w>
des er
d augh
clu bs</w>
T om
Grou p</w>
wa i
v or
plea sed</w>
h ang
f low</w>
wa shing</w>
re fu
necess arily</w>
en em
box es</w>
- time</w>
y an</w>
stop s</w>
re al
po ver
nu clear</w>
leng th</w>
k illing</w>
h eight</w>
gg ed</w>
g all
country side</w>
Braz il</w>
200 4</w>
t une</w>
supp lies</w>
stre am</w>
ologi es</w>
dol ph
cl aim</w>
bas ket</w>
200 6</w>
top ic</w>
m ass</w>
hun ting</w>
expres sions</w>
con clud
ar gue</w>
S anta</w>
Cana dian</w>
3 1</w>
wea k
re vol
re move</w>
promis ed</w>
op h
fle w</w>
N ever</w>
o h</w>
mini stration</w>
laugh ing</w>
i Phone</w>
hid den</w>
c ow
B ook</w>
see ds</w>
s ey</w>
p .m</w>
off ices</w>
muse ums</w>
exam ples</w>
abul ary</w>
l ou
g est
exec utive</w>
ea h</w>
dou ble</w>
deli ver
auth ors</w>
Th rough</w>
satis fac
ph il
l en</w>
cerem ony</w>
B us
Al most</w>
19 0
st ones</w>
nov els</w>
no is
har v
fac ilities</w>
educ ated</w>
ea k</w>
can di
Sh en
Ch en</w>
sa v
r ush</w>
oun ded</w>
Ric hard</w>
C up</w>
shar p</w>
over seas</w>
func tion</w>
enjo y
ac tor</w>
Thank sgiving</w>
Serv ice</w>
ul ed</w>
ter ed</w>
s ons</w>
regi ons</w>
et er
disapp eared</w>
clim bed</w>
C our
C all</w>
6 -
whe el
gre et
el ly</w>
chea per</w>
an z
ad ds</w>
` s</w>
W ee
O f
M ean
6 00</w>
w eigh
re moved</w>
r ar
po t</w>
o t
foun der</w>
excit ement</w>
c ked</w>
brea ks</w>
ad mitted</w>
a vi
P S</w>
C i
surg ery</w>
sm oo
sha ke</w>
resp ond</w>
or dered</w>
m ice</w>
f are</w>
differ ently</w>
2 8
stor ms</w>
st ro
see k</w>
por ary</w>
p -
n t</w>
l am
in stitu
in deed</w>
fi sh
W ater</w>
stat us</w>
dist ur
cha in</w>
ba se</w>
L ong</w>
pil ot</w>
lan tic</w>
k id
jour nal</w>
house hold</w>
es -
ell o</w>
ea ble</w>
b by</w>
ab sor
Th anks</w>
B BC</w>
Ad v
A T
tou rism</w>
spea ker</w>
sil ent</w>
re ci
nec k</w>
k m</w>
gradu ation</w>
foun ded</w>
br and</w>
v ili
t ab
for gotten</w>
dec line</w>
cor n</w>
A my</w>
un g</w>
thre at</w>
symp toms</w>
ow ned</w>
grow s</w>
am i</w>
Soci ety</w>
NA SA</w>
D ani
Centr e</w>
C ul
sun light</w>
pover ty</w>
fic ation</w>
ev en
c o</w>
be aches</w>
b age</w>
S il
F ol
ti ed</w>
read s</w>
lo t
ga thered</w>
cra ft</w>
claim ed</w>
b ly</w>
V is
U N
te dly</w>
po ems</w>
pl ate</w>
hum or</w>
bu m</w>
bat tle</w>
Tok yo</w>
At lantic</w>
wor e</w>
spea kers</w>
smar t
shel ter</w>
satisfac tion</w>
s eas
row s</w>
re action</w>
m ile</w>
fac tor</w>
cham pi
au ts</w>
S ol
Rus sian</w>
B or
An tar
t ours</w>
sign als</w>
s chedule</w>
po etry</w>
met al</w>
it age</w>
govern ments</w>
ach ers</w>
Th ir
G lo
thre w</w>
symbo l</w>
n am
mid -
dri ven</w>
consum ption</w>
bas eball</w>
atic ally</w>
ag ers</w>
U sing</w>
Stu dies</w>
S us
E S
8 00</w>
th an
t ings</w>
ro b
proper ty</w>
pic king</w>
m ates</w>
ee ds</w>
di oxide</w>
concer ns</w>
com mon
Gre en
ther ap
struc k</w>
ga p</w>
ey ed</w>
ess ential</w>
cal cul
and er</w>
E liz
uni or</w>
om en
obe sity</w>
im m
histor ic</w>
cent ers</w>
bud get</w>
achiev ement</w>
a u</w>
T ha
voc abulary</w>
sil ence</w>
se x</w>
reas onable</w>
p al</w>
industri al</w>
discus sion</w>
coo k
brea the</w>
bo ar
tow ns</w>
se ats</w>
mir ror</w>
in ts</w>
ic a</w>
camer as</w>
sur f
su rely</w>
read er</w>
gener ations</w>
compe te</w>
att ended</w>
athlet es</w>
B re
A ir</w>
viol ence</w>
u tions</w>
tec h</w>
sear ching</w>
over all</w>
no ted</w>
lo ving</w>
imag ination</w>
h ill</w>
fing er</w>
be side</w>
appropri ate</w>
a ward</w>
S to
10 ,000</w>
z one</w>
scar ed</w>
busin essm
bl ame</w>
b a</w>
ali zed</w>
aff ects</w>
Langu age</w>
tow er</w>
satis fied</w>
reach ing</w>
pl us</w>
ol ds</w>
li d</w>
influ enced</w>
es sions</w>
Of ten</w>
K a
under ground</w>
super market</w>
identi fy</w>
gr ate
emp ha
bi kes</w>
b ye</w>
Rec ently</w>
Mar tin</w>
repor ter</w>
prin ted</w>
per man
intellig ent</w>
impro ving</w>
coun ter</w>
all -
W el
P ic
ter r
teach es</w>
gene tic</w>
L oo
J ones</w>
war ned</w>
w ra
u g
t t
sub way</w>
sh eep</w>
sch ed
perf ec
ne ither</w>
lim its</w>
ap ples</w>
all ed</w>
us er</w>
tiv ity</w>
ed ly</w>
St .</w>
sc ale</w>
d ear</w>
____ _</w>
Spr ing</w>
M el
L isa</w>
Ha wai
Fa ther</w>
B ay</w>
some body</w>
phen omen
li t</w>
fright ened</w>
deal ing</w>
b ell</w>
ali st</w>
Med ical</w>
su ally</w>
peri ods</w>
mus cles</w>
goo d
ext inc
cre ativity</w>
celebr ated</w>
b ones</w>
awar eness</w>
Scot land</w>
I mag
pri de</w>
deb t</w>
daugh ters</w>
D S</w>
stom ach</w>
sc ap
re view</w>
gradu ally</w>
di str
com mod
Sp eci
Rea ding</w>
K i
Every thing</w>
y r
th ro
res cue</w>
gr ounds</w>
fif ty</w>
fac tories</w>
a k</w>
Organi zation</w>
vit amin</w>
un known</w>
th ank
al u
Mean while</w>
Gu ang
D re
ys is</w>
sh ore</w>
sensi tive</w>
regar ded</w>
fif th</w>
fall en</w>
di vor
bloc k</w>
T ower</w>
Lin col
Jack son</w>
C al
travel ers</w>
sh er</w>
reduc ing</w>
re gre
r ay</w>
m ly</w>
fl exi
fe deral</w>
f ed</w>
em entary</w>
e ties</w>
con clu
cin em
bot tles</w>
R ead</w>
Ho sp
ru p
phil os
mid night</w>
grand parents</w>
gr ams</w>
cir cle</w>
ca st
D el
ur s</w>
sec tion</w>
re place</w>
min im
T -
M an</w>
2 7
win ds</w>
ti e</w>
see king</w>
mi xed</w>
ma them
fe es</w>
emis sions</w>
att acks</w>
achiev ed</w>
Ex p
y o
sh ock</w>
sc ore</w>
protec ted</w>
m ech
d on</w>
d ining</w>
concer t</w>
be gun</w>
V alley</w>
D es
f icial</w>
b alls</w>
auth orities</w>
ap pe
ail s</w>
T O
Li br
young est</w>
saf ely</w>
pr on
plan ted</w>
p a</w>
mar k
ini a</w>
expl or
et ting</w>
custom s</w>
cop ies</w>
co ast
c and
Tai wan</w>
M en</w>
G ir
writ es</w>
strugg ling</w>
ro of</w>
rela xed</w>
recei ving</w>
pic ally</w>
green house</w>
exhi bition</w>
dic tionary</w>
competi tive</w>
H ea
C er
la b</w>
announ c
ac tual</w>
St an
Eng lish
Chri sti
mo vements</w>
T H
L in</w>
Gener al</w>
3 2</w>
r ich
p raise</w>
jo ke</w>
il and</w>
enti rely</w>
encour aging</w>
emplo yed</w>
ell ite</w>
be t</w>
posi tions</w>
hol es</w>
fa st
e ats</w>
ac t
Th us</w>
M s</w>
Di rec
Cam bridge</w>
tu red</w>
pro vince</w>
occu r</w>
mar ked</w>
laun ched</w>
fe ature</w>
divid ed</w>
co al</w>
bra ve</w>
b o</w>
an nel</w>
ad o</w>
Ro yal</w>
Fr ank</w>
C .</w>
polic eman</w>
pay ment</w>
jo kes</w>
ir man</w>
am m
agg res
ver se</w>
v ast</w>
sad ness</w>
r ings</w>
psych ologist</w>
point ment</w>
in stein</w>
in ches</w>
il ly</w>
hea ded</w>
ex tra
draw n</w>
Un like</w>
M ass
L uc
F ound
vi sible</w>
the ast</w>
techn ologies</w>
sp ar
p ace</w>
og a</w>
hou sing</w>
gard ens</w>
consid ering</w>
choo sing</w>
ad ju
H all</w>
B al
2 6
survi val</w>
prepar ing</w>
l ap
fore ig
claim s</w>
ac tors</w>
T y
00 ,000</w>
tr ading</w>
re placed</w>
pers ons</w>
oo s</w>
m ouse</w>
list ened</w>
i al</w>
hospit als</w>
ex posed</w>
employ ers</w>
consci ous</w>
attrac tions</w>
Tha iland</w>
200 3</w>
ro ots</w>
religi ous</w>
ogra phy</w>
li sted</w>
lab or
k ne
fif teen</w>
fe e</w>
f al
di ag
O ld</w>
Found ation</w>
C ong
- based</w>
mean ing
man ners</w>
histor ical</w>
h an</w>
fa thers</w>
er ies</w>
con sul
L ar
I sl
Fr ank
F oo
Eliz abe
st oc
perfec tly</w>
is tics</w>
i sts</w>
gram mar</w>
g n
enc ing</w>
Lincol n</w>
H al
Dev el
B ank</w>
sto red</w>
sig nal</w>
pot atoes</w>
m as
fi res</w>
est ing</w>
e th
challeng ing</w>
cat eg
bi o
E instein</w>
re land</w>
liqu id</w>
li ver</w>
g un
en ses</w>
cor por
color ful</w>
ali sts</w>
S qu
Fam ily</w>
wor n</w>
ven ue</w>
stu ff</w>
ing dom</w>
g ers</w>
eg g</w>
cl er
S ir</w>
R oc
F our</w>
th rown</w>
grate ful</w>
g ases</w>
du m
Virg inia</w>
Ph ili
Car ol
su res</w>
ste pped</w>
ough ly</w>
m ate</w>
lo vers</w>
guar an
f as
expo sure</w>
dec l
cri tical</w>
b ills</w>
T or
Po tter</w>
teen age</w>
sou p</w>
oc eans</w>
ni c</w>
id eal</w>
au tum
astron auts</w>
T el</w>
Mini ster</w>
B A</w>
si r</w>
main tain</w>
bo ats</w>
V er
un cle</w>
sugges tions</w>
pr ic
par tly</w>
oper ations</w>
k e-
h ang</w>
gol den</w>
di strict</w>
defin itely</w>
U.S .
P sych
Kore an</w>
Gre ek</w>
Elizabe th</w>
4 -
pres ent
pat tern</w>
pain ted</w>
law yer</w>
impro vement</w>
hear ts</w>
ell a</w>
du st</w>
dec lar
bo red</w>
autum n</w>
T w
I reland</w>
I T</w>
w ing</w>
vic tim
sk i</w>
sing ly</w>
sal ary</w>
qu e
al bum</w>
No thing</w>
M em
M ac
A S
to il
si zed</w>
s a</w>
ri d
me ter</w>
land ed</w>
et ts</w>
cu ps</w>
conveni ent</w>
asp ects</w>
ach us
Tr an
Mass achus
D ut
B ab
3 6</w>
wh ales</w>
un comfortable</w>
ul ts</w>
po em</w>
pe ace
passeng er</w>
pas sion</w>
incre di
disapp ear</w>
deb ate</w>
celebr ation</w>
bath room</w>
ma ker</w>
dis ci
c ure</w>
adop ted</w>
Publi c</w>
Off ice</w>
Med ic
Comp any</w>
viol ent</w>
u a</w>
sand w
out doors</w>
inv ent
inj ury</w>
fit ness</w>
expect ations</w>
bar s</w>
O s
ta il
strong ly</w>
shar ks</w>
requ est</w>
po sted</w>
other wise</w>
Un der
Sh ar
IN G</w>
G over
v el</w>
rar ely</w>
plan ets</w>
k ni
f lights</w>
con test</w>
clou ds</w>
ad mit</w>
T ick
K o
st ered</w>
relati ves</w>
produc es</w>
le f
in sul
embarr as
di abe
L uck
H ello</w>
7 -
win ners</w>
s si
oper ating</w>
fav our
convers ations</w>
Vic tori
T ri
T ou
Mic ro
I C
Coun ty</w>
univer se</w>
ther ing</w>
suppor ted</w>
su e</w>
relati vely</w>
refl ect</w>
re stric
la sting</w>
immedi ate</w>
for ces</w>
er a</w>
arti ficial</w>
ar gu
Y ang</w>
H or
G ra
8 5</w>
ne st</w>
intro duce</w>
evol ution</w>
ec e</w>
ati ves</w>
Un der</w>
U sually</w>
Massachus etts</w>
Gr and</w>
3 3</w>
pain ful</w>
nit ure</w>
mar ine</w>
invol ves</w>
cha irs</w>
ad y</w>
Sus an</w>
Hosp ital</w>
view ing</w>
ly -
comb ination</w>
c y</w>
So cial</w>
N ow
Imag ine</w>
F un
Dani el</w>
D oes</w>
y ou
wh i
victim s</w>
u ri
re ward</w>
m enti
co de</w>
ati n</w>
anti -
ab sol
Pro gram</w>
P ho
8 -
ti ger</w>
st ries</w>
spo ts</w>
schol ar
ro c
lab or</w>
l at
inf ected</w>
farm s</w>
dom es
conv inc
ru b
rel ations</w>
phys ically</w>
p ra
ni ght
li est</w>
l aughter</w>
fair ly</w>
f ears</w>
condi tion
bal lo
ac he</w>
Te achers</w>
E R
An n</w>
A ri
un expected</w>
ti an</w>
j ew
fir st-
f an</w>
bl ack
be er</w>
N ic
G en
A M</w>
w ealthy</w>
ud es</w>
ty pically</w>
r ats</w>
mon keys</w>
j unk</w>
ga ther</w>
b arri
applic ations</w>
ang ered</w>
ac ket</w>
ab and
T re
Pal ace</w>
Ju li
H e
A li
3 ,000</w>
woo den</w>
v y</w>
u red</w>
rout ine</w>
p y</w>
li ght
gi es</w>
disci pl
di tion</w>
ab o
Libr ary</w>
L earn</w>
st able</w>
remo te</w>
pow ered</w>
impres sion</w>
enti ally</w>
ci vili
atis tics</w>
Sec re
Ph il
In formation</w>
Com pu
ter -
spo t
qu it</w>
ob ile</w>
let ting</w>
con struc
co ins</w>
aster n</w>
ad dy</w>
Jour nal</w>
Jen ny</w>
H igh
zz a</w>
un ch</w>
shar k</w>
s tim
s cri
inst ant</w>
heav ily</w>
fur niture</w>
el even</w>
du ty</w>
as ka</w>
an ted</w>
Dut ch</w>
- up</w>
y eah</w>
vi su
u ps</w>
tr ag
stic ks</w>
radi ation</w>
hang ing</w>
foun d
ell er</w>
consum er</w>
coll ecting</w>
an ni
With in</w>
Happ y</w>
D .
6 0
20 th</w>
un it</w>
ti p</w>
pre -
ob s</w>
nin et
gen e</w>
fi ve-
expres sed</w>
exerci ses</w>
devo ted</w>
arg ument</w>
and ed</w>
Ste ph
th west</w>
spokes man</w>
sh ut</w>
saf er</w>
g ri
follow s</w>
comb ined</w>
W H
S how</w>
3 8</w>
vis its</w>
stres sed</w>
org anic</w>
e en
dep ending</w>
cigaret tes</w>
car ing</w>
ac le</w>
W ild
P en
N ations</w>
Coun cil</w>
Cong ress</w>
mi x
ment ally</w>
f at
ey e
comm ents</w>
az z</w>
I O
En viron
4 0
10 -
u k
pro of</w>
predic t</w>
insp ir
ing ham</w>
direc tions</w>
const ant</w>
b ite</w>
a wards</w>
St ation</w>
N ature</w>
L atin</w>
K ate</w>
B ea
surroun ded</w>
s ses</w>
rev eal
quali ties</w>
pol l
mech an
it a</w>
er al</w>
engine er</w>
deli ver</w>
dar k
compl ic
circ um
L earning</w>
Devel op
An y</w>
4 8</w>
wis dom</w>
sel ected</w>
re war
pres ence</w>
offic ers</w>
ob served</w>
o sa
instruc tions</w>
hal f-
cl ick</w>
bow l</w>
bloc ks</w>
al ism</w>
accep table</w>
Now adays</w>
In c
I l
Con t
AI DS</w>
su sta
ster n</w>
smo kers</w>
sh ment</w>
pre ad</w>
out standing</w>
myst ery</w>
cre ates</w>
common ly</w>
att ending</w>
advertis ements</w>
ac qu
a i</w>
S .</w>
Fi ve</w>
stu p
st en</w>
sat ellite</w>
phenomen on</w>
main land</w>
kee per</w>
ig n
fee ding</w>
S el
photograph s</w>
part ners</w>
part ments</w>
over come</w>
ob viously</w>
hun t</w>
exam ination</w>
chi ps</w>
char ged</w>
b one</w>
ad m
T el
3 7</w>
wh eel</w>
re turning</w>
pre viously</w>
part -time</w>
ex act</w>
el d</w>
cl ed</w>
J ud
C ur
As k</w>
Ama zon</w>
techni que</w>
re mark
r ude</w>
phys ici
perform ing</w>
mee tings</w>
lo aded</w>
identi ty</w>
farm ing</w>
dres ses</w>
cu ts</w>
a ster</w>
N a
CE O</w>
wor ries</w>
sp are</w>
recogni tion</w>
r hy
psych ology</w>
ol ly</w>
lu x
hu a</w>
hom et
gu it
do zen</w>
con tra
clas sic</w>
M ore
M ag
Di ff
Cam p</w>
x i</w>
t ation</w>
so -
shor ter</w>
psych ological</w>
per cent
k ins</w>
gi e</w>
friend ships</w>
fas cin
dolph ins</w>
c ous
c ab
be have</w>
archit ec
altern ative</w>
A f
200 1</w>
trav elling</w>
sent ence</w>
requi rements</w>
program me</w>
n ic
l em
impres sive</w>
explan ation</w>
di al
der ship</w>
correc tly</w>
compla in</w>
col our</w>
Sta r</w>
sy l
sp or
sou l</w>
m m-
li c</w>
import antly</w>
gar bage</w>
bel ong
Loo king</w>
tar get</w>
st ol
sh ook</w>
pa irs</w>
mathem atic
ma d</w>
life -
k i
favour ite</w>
ee ding</w>
doc um
coo ked</w>
bi e</w>
awar ded</w>
ap ologi
al ty</w>
Is ra
- to-
tur ing</w>
sol utions</w>
sil ver</w>
qu o
mm- hm</w>
k in</w>
j i</w>
gradu ated</w>
di um</w>
consequ ences</w>
ca kes</w>
but ton</w>
anal ysis</w>
polic ies</w>
phys ics</w>
op ens</w>
gy m</w>
gh ted</w>
g ently</w>
for c
diag no
cre w</w>
comp ani
am bi
Wh atever</w>
We b
R en
C lar
occur red</w>
mor al</w>
lo g
la kes</w>
house work</w>
gro cer
en try</w>
d ges</w>
character istics</w>
Z oo</w>
Rom an</w>
L ab
F ort
C hi
so lid</w>
rol led</w>
jud g
hu g</w>
four -
f estiv
el ed</w>
dec reas
cl in
bur gh</w>
ad mission</w>
Ti m</w>
P or
M y
Gi ve</w>
F ind</w>
w oke</w>
sha ped</w>
res er
re st
quar ters</w>
menti oned</w>
k ey
for tune</w>
er o
coun t
as sum
am ins</w>
S ee</w>
N at
J obs</w>
Doc tors</w>
view ers</w>
trav els</w>
tan ker</w>
si zes</w>
repe ated</w>
recy cling</w>
preci ous</w>
nar row</w>
is on</w>
identi fied</w>
gu est</w>
exam ined</w>
eff ectively</w>
dr ama</w>
destro y</w>
de fe
cros sing</w>
bre l
app lied</w>
S ports</w>
F er
B ush</w>
7 00</w>
y l
t al</w>
st es</w>
sav ings</w>
ri des</w>
re pair</w>
op tim
net works</w>
mi x</w>
instr uments</w>
il legal</w>
hon ey</w>
cou ples</w>
R ose</w>
D .</w>
shoul der</w>
shir ts</w>
s ac
perman ent</w>
musici ans</w>
mid d
manag ers</w>
land scap
exi st
ea stern</w>
cr ash</w>
bo ards</w>
be ans</w>
b ands</w>
ap pl
Po st</w>
E ve</w>
D ou
100 ,000</w>
wid es
us tin</w>
str ated</w>
sp on
rela xing</w>
prote in</w>
os ity</w>
oper ate</w>
fant astic</w>
f ame</w>
ec k</w>
dang ers</w>
anxi ous</w>
Y ou
T em
O per
E -
196 0s</w>
w allet</w>
tradi tions</w>
rap id</w>
pre sid
om ing</w>
nutri tion</w>
measu red</w>
iP ad</w>
employ ee</w>
con si
beli efs</w>
ac commod
K in
D s</w>
A L
y le</w>
surf ing</w>
sur ing</w>
stim ul
re j
nur ses</w>
mo tor
m al
loc ked</w>
f ted</w>
en vel
en cies</w>
cy cling</w>
be st-
b om
ari an</w>
S hi
Exp o</w>
E r
y n</w>
work place</w>
week ly</w>
surroun ding</w>
real istic</w>
produc tive</w>
perform ances</w>
op tions</w>
mem ori
equ ally</w>
ea ger</w>
conf used</w>
co in</w>
care ers</w>
ap s</w>
Pro ject</w>
C in
Ac tually</w>
4 5
wides pread</w>
stol en</w>
sle pt</w>
professi on
plat form</w>
of -
ir on</w>
ham bur
form ing</w>
de er</w>
bi ological</w>
al y
X in
T ony</w>
R el
O R
K now
C r
An ne</w>
techn ical</w>
rail way</w>
put ation</w>
pl om
dem on
Squ are</w>
No body</w>
N ick</w>
Mc Donald</w>
Hi story</w>
C ro
w ings</w>
v an</w>
un ic
stop ping</w>
man ner</w>
kno cked</w>
in s
homet own</w>
h es
ev alu
end angered</w>
ed itor</w>
dist ri
disap pointed</w>
chee se</w>
acc o</w>
P enn
H I
4 2</w>
sha king</w>
sel dom</w>
ro les</w>
ra ft</w>
or g</w>
ill u
hon est
fa ult</w>
distri bu
cop e</w>
chec ked</w>
b le
al arm</w>
air s</w>
Medic ine</w>
200 2</w>
sett led</w>
philos oph
pe ers</w>
pati ence</w>
gu il
for got</w>
el ements</w>
ca f
any more</w>
a side</w>
Speci al</w>
19 th</w>
pu shing</w>
med al</w>
meaning ful</w>
libr aries</w>
fol k</w>
confir med</w>
bu ried</w>
S t</w>
M and
G al
woo ds</w>
war mer</w>
text books</w>
sha pes</w>
re tired</w>
fe at
do or
bur ned</w>
O ver
Hawai i</w>
Diff er
A le
vill ages</w>
under water</w>
t .</w>
p ears</w>
la zy</w>
earthqu akes</w>
diabe tes</w>
coun ting</w>
contribu te</w>
conflic t</w>
con om
as y</w>
Vol unte
I Q</w>
El ec
wonder ing</w>
top ics</w>
show er</w>
short -
prefer red</w>
popul ations</w>
po ses</w>
p and
p acked</w>
mil li
it em</w>
hea ding</w>
eri ous</w>
Un til</w>
Sh er
E conom
A T</w>
199 0s</w>
um p</w>
tr ick</w>
priv acy</w>
pre h
particip ate</w>
i est</w>
exi sting</w>
der ing</w>
dee per</w>
accur ate</w>
C D</w>
Bu ild
v a</w>
therap y</w>
recomm ended</w>
re mind</w>
re di
p ound</w>
ner ship</w>
engine ers</w>
dec re
c andy</w>
Bus iness</w>
B each</w>
8 8</w>
2 9
y or</w>
wh ale</w>
sun ny</w>
separ ated</w>
scen es</w>
p ou
mon key</w>
m ous</w>
li sts</w>
independ ence</w>
ig s</w>
ho bby</w>
ha ir
ee ded</w>
di ary</w>
cinem a</w>
attit udes</w>
aim s</w>
achiev ements</w>
E N
Ch ang
A ge</w>
u me</w>
stup id</w>
si tion</w>
ren ce</w>
r ors</w>
pol ar</w>
per mission</w>
ol es
ing redi
harv est</w>
eri a</w>
enter ing</w>
encour ages</w>
bo y
ali ties</w>
B ack</w>
un pleasant</w>
tr apped</w>
pen cil</w>
op tion</w>
int ended</w>
in er</w>
festiv als</w>
eng ines</w>
depres sed</w>
decre ase</w>
contra st</w>
bran ches</w>
199 0</w>
w s</w>
vit amins</w>
ug ly</w>
jum ping</w>
fun d</w>
emo tion</w>
desig ner</w>
da y-
class ical</w>
chec king</w>
Pl an
O k
H ill</w>
Ch ris</w>
Al ex
3 4</w>
treas ure</w>
th a</w>
signific antly</w>
si de
sel ection</w>
ro pe</w>
pen gu
pack age</w>
lea dership</w>
gi a</w>
fair y</w>
domes tic</w>
di plom
curi ous</w>
ay l
a wake</w>
Mic hel
H on
H ome</w>
G etting</w>
C ho
3 ,
00 s</w>
00 -
tom atoes</w>
ter y</w>
tal es</w>
shop pers</w>
s lo
re act</w>
prin ting</w>
p on</w>
inc ident</w>
fro zen</w>
fal se</w>
fac ial</w>
electr ical</w>
di son</w>
dea dly</w>
air plane</w>
Win ter</w>
M ur
L ev
Glo bal</w>
th rowing</w>
p ha
m .</w>
dist ant</w>
anc er</w>
O hi
K e
B ud
Al aska</w>
worl d-
thir ds</w>
re putation</w>
play ground</w>
percent age</w>
par ently</w>
on ous</w>
ob serv
good bye</w>
Wor k</w>
Ha w
Co .</w>
Bl ue</w>
An drew</w>
198 0s</w>
197 0s</w>
year- olds</w>
vic tory</w>
syl v
stam ps</w>
so- called</w>
ri g
pro sp
poli tics</w>
j unior</w>
in able</w>
hear t
extra ordinary</w>
connec tions</w>
cer ti
bur g</w>
b id
R ome</w>
5 2</w>
4 4</w>
thi ef</w>
the ater</w>
su its</w>
fun ds</w>
ex ha
dis order</w>
deliver ed</w>
comp are</w>
cha irman</w>
boar ding</w>
T ele
Inc .</w>
G ates</w>
F ur
Colum bia</w>
Ar ctic</w>
18 9
wor rying</w>
ut ely</w>
re present</w>
pe st</w>
our ing</w>
or al</w>
imm une</w>
full- time</w>
cul p
S we
N early</w>
Luck ily</w>
K ingdom</w>
3 6
spac es</w>
sn acks</w>
re ply</w>
par ti
p eak</w>
org an</w>
i tion</w>
gu ard</w>
agricul ture</w>
ac es</w>
P ut</w>
Micro soft</w>
L E
Egy pt</w>
wait er</w>
tal e</w>
t ables</w>
sol ving</w>
sh ut
s ends</w>
repres ent
re plac
practic es</w>
laun ch</w>
in nov
imag ined</w>
gol f</w>
fer ti
estim ate</w>
ast y</w>
Pl ace</w>
On line</w>
Ohi o</w>
O N
M ing</w>
2 50</w>
y ours</w>
wat ches</w>
wa shed</w>
vo ices</w>
um brel
tol er
sh ire</w>
p un
on ics</w>
gr as
ch est</w>
any way</w>
V o
Sw ed
Some one</w>
M um</w>
Indi ans</w>
Ex c
tic a</w>
sta ys</w>
ra se</w>
midd le-
f os
el a</w>
circum stances</w>
bl an
be ds</w>
attrac tion</w>
V ill
20 ,000</w>
- made</w>
un like</w>
survi ved</w>
ro ts</w>
reco ver</w>
re new
r at
on ies</w>
ji ang</w>
descri bes</w>
coun ted</w>
Vi et
Moun t</w>
In v
Gover n
sub st
second -
or ph
low s</w>
indu stries</w>
declar ed</w>
cast le</w>
app eal</w>
ama zed</w>
Roo m</w>
O ut
Hel en</w>
Air port</w>
wher ever</w>
w ill
visu al</w>
vis itor</w>
than ked</w>
shi ft</w>
resp ond
near est</w>
in ated</w>
gard less</w>
exist ence</w>
ess ors</w>
ch im
ast oni
arri val</w>
Penn sylv
Moun tain</w>
: 30
viol in</w>
reti rement</w>
mon thly</w>
m ention</w>
ic y</w>
ho t
guil ty</w>
gent le</w>
expl oring</w>
de als</w>
co gni
ath on</w>
Sou thern</w>
Mo der
M a</w>
Gre ece</w>
A C
vir tual</w>
un likely</w>
sal es
re porters</w>
qu anti
bre e
aim ed</w>
ac counts</w>
D ick
Ar ound</w>
9 :00</w>
tr ad
sy n
sp id
s ang</w>
reveal ed</w>
ph rase</w>
over night</w>
immigr ants</w>
hi king</w>
equi pped</w>
down town</w>
din osa
com ment</w>
col ored</w>
broad cast</w>
al ing</w>
Wel come</w>
Stud y</w>
Luc y</w>
Ear ly</w>
reli able</w>
prepar ation</w>
pois onous</w>
nur sing</w>
no te
ne ys</w>
ign ore</w>
hel lo</w>
glo be</w>
fav or</w>
exp and</w>
ec o
dre amed</w>
dr ank</w>
direc ted</w>
di versity</w>
d ated</w>
conveni ence</w>
con tain
ch at
cap able</w>
cam ping</w>
att acked</w>
S ho
Gar den</w>
Antar c
199 7</w>
wi shes</w>
wan ting</w>
sp elling</w>
refu se</w>
ligh ting</w>
inv entions</w>
f illing</w>
don e
com preh
att ached</w>
assist ance</w>
T ru
D ri
surv eyed</w>
sk illed</w>
reg ard</w>
reco very</w>
psych ologists</w>
m ers</w>
lou dly</w>
j acket</w>
in door</w>
i stry</w>
h ire</w>
d or
cri tics</w>
bu tter</w>
arm ing</w>
Gr ade</w>
G M</w>
Antarc tica</w>
whe els</w>
vers ary</w>
v ice</w>
uti on
t led</w>
sho e</w>
s its</w>
s culp
ous ness</w>
on na</w>
la sts</w>
dem ands</w>
clo th</w>
cal end
Wh enever</w>
Ch ur
C ham
Ad ministration</w>
z ens</w>
tr icks</w>
ti me
res cu
num erous</w>
mee ts</w>
le an
kni fe</w>
institu tions</w>
ig no
id e
h ated</w>
exc use</w>
complic ated</w>
char ges</w>
br ush</w>
b in</w>
U p</w>
Al ways</w>
3 5
to b
tem porary</w>
st eal</w>
sn ake</w>
remark able</w>
prin ts</w>
pla in</w>
organi ze</w>
la yer</w>
int en
frequ ent</w>
el ing</w>
cigaret te</w>
bur y</w>
a unt</w>
Y outh</w>
Wh it
Schoo ls</w>
Pennsylv ania</w>
M P
1 20</w>
z a</w>
sk ir
shou ting</w>
sched uled</w>
s orts</w>
puni shment</w>
por tion</w>
loc ations</w>
inspir ation</w>
fish er
ear liest</w>
des per
compla ined</w>
aggres sive</w>
V ery</w>
N et
In done
Fort un
Bri dge</w>
wheel chair</w>
un healthy</w>
sp ends</w>
sent ences</w>
reli ef</w>
peace ful</w>
p ink</w>
ood les</w>
mis sions</w>
mat ches</w>
mar ry</w>
m ou
liter ary</w>
lic ense</w>
lear nt</w>
en a</w>
deli very</w>
clo sing</w>
cl oud</w>
businessm an</w>
ban ned</w>
W oo
T ea
Sw it
L au
H i</w>
Gol den</w>
Dis ne
Cor p.</w>
shoo ting</w>
re sist
protec ting</w>
p raised</w>
org an
le y
insp ire</w>
fic ally</w>
ear nings</w>
b on
air craft</w>
W u</w>
A th
.m .
whi sp
theat re</w>
tax es</w>
st eel</w>
speci ally</w>
pre gn
mon it
h eating</w>
el iness</w>
down load</w>
com edy</w>
clo se
cler k</w>
car ri
bo w</w>
advent ures</w>
S up
More over</w>
Em ily</w>
Ch ild</w>
Ar ts</w>
vers al</w>
ur a</w>
t ut
t ens</w>
some what</w>
so ap</w>
rec ording</w>
long est</w>
enthusi as
deta iled</w>
cro p</w>
batter ies</w>
am bo
advis ed</w>
R O
M us
In deed</w>
H y
Fri ends</w>
2 2
18 8
ut es</w>
tou ching</w>
toil et</w>
spec tive</w>
sa il
ow ns</w>
myst erious</w>
ma xim
invest ors</w>
in te
ic ked</w>
guit ar</w>
fo rec
fa st-
e .
dr unk</w>
dol l</w>
desig ns</w>
dea f</w>
d enti
cooper ation</w>
conclu sion</w>
at -
as on</w>
all er
O l
Nor thern</w>
Hum an</w>
F lo
Every body</w>
C y
Boo ks</w>
surpri singly</w>
some how</w>
k i</w>
inv ite</w>
impres sed</w>
gu ided</w>
flexi ble</w>
et ro
dri ves</w>
d ating</w>
color 1
air e</w>
W ales</w>
T ell</w>
No .
M o</w>
Fortun ately</w>
F ord</w>
Al bert</w>
6 6</w>
tea m
ta to</w>
strate gy</w>
predic ted</w>
poin ting</w>
og rap
oc r
net working</w>
mus cle</w>
in son</w>
i zed</w>
hi red</w>
fu r</w>
ener y</w>
br u
as sign
ad oles
Tra vel</w>
Th ings</w>
D em
vo te</w>
un believ
tob acco</w>
respon sib
poli tici
no d
la id</w>
in d
ill nesses</w>
i ze</w>
h a</w>
end less</w>
br illi
batter y</w>
Vis itors</w>
S ic
Ro bo
Mic hi
Hel p</w>
D ol
3 9</w>
vol ume</w>
ser ves</w>
se where</w>
sco red</w>
repres ents</w>
rema ining</w>
pas ses</w>
origin ally</w>
gi c</w>
func tions</w>
f ea
enjoy able</w>
e- ma
dir t</w>
class rooms</w>
ch ester</w>
cat ching</w>
ayl or</w>
arrang ed</w>
Mini stry</w>
F u
Co ast</w>
Cl ass</w>
199 9</w>
' I</w>
th or
ro man
res ol
produc ers</w>
it i</w>
f ever</w>
en or
cre ation</w>
co w</w>
ac ity</w>
a c</w>
Steph en</w>
Grand ma</w>
v ary</w>
the -
t sun
s in
recomm end</w>
pul ling</w>
pri zes</w>
mon itor</w>
medic ines</w>
j un
high way</w>
gr ay</w>
ent ine</w>
dist inc
ann y</w>
To o</w>
P res
Mu ch</w>
I r
sp reading</w>
plan ting</w>
n oodles</w>
m amm
is ing</w>
hun ger</w>
fu els</w>
el t</w>
der gar
ali zation</w>
a o
Su b
Pat r
Differ ent</w>
Di strict</w>
Carol ina</w>
9 -
par enting</w>
l eman</w>
j eans</w>
hur ry</w>
g as
for ty</w>
fa ith</w>
dro ps</w>
disa sters</w>
cow s</w>
communic ations</w>
U N</w>
U .</w>
Sh ould</w>
Scot t</w>
Ale x</w>
trac ks</w>
sp ite</w>
rec all</w>
profession als</w>
list en
gar age</w>
fir ms</w>
et on</w>
dre aming</w>
conclud ed</w>
con tract</w>
be ar
b oun
b id</w>
Tal k</w>
Pri me</w>
Man h
M iller</w>
L ady</w>
C ould</w>
4 9</w>
4 7</w>
- the</w>
v ital</w>
um es</w>
tal ents</w>
supp er</w>
ro om
respon ded</w>
repe at</w>
recy cled</w>
r ang</w>
quali fied</w>
pollu ted</w>
pand as</w>
n ick
l inks</w>
introduc tion</w>
h at
fini shing</w>
continu ing</w>
car ed</w>
cap tain</w>
ca ve</w>
Swed en</w>
Lou is</w>
K elly</w>
zer land</w>
tw ins</w>
sil ly</w>
si l</w>
s s
rec re
pi zza</w>
lif ted</w>
knowle d
insi sted</w>
hum an
found ation</w>
di ving</w>
crimin al</w>
c e
b onds</w>
ambo o</w>
air line</w>
Moder n</w>
I M
Ch oo
Any one</w>
wa in</w>
tre m
tre ating</w>
tan kers</w>
pi g</w>
n am</w>
men u</w>
labor atory</w>
inter net</w>
fast est</w>
f ence</w>
em br
descri ption</w>
de x</w>
concentr ate</w>
con sist
bri ef</w>
be an</w>
Michi gan</w>
Manh att
I T
C ast
Ar ab
wor thy</w>
tig ers</w>
t s
secre ts</w>
on er</w>
n om
ho bb
habit at</w>
en h
en able</w>
di am
acc es
S ure</w>
Disne yland</w>
war n</w>
u pper</w>
tr ash</w>
top s</w>
t one</w>
sw itch</w>
smoo th</w>
ri e</w>
met res</w>
lear ns</w>
g ent</w>
cook ies</w>
con servation</w>
S or
Ri ght</w>
L aw
F o
D un
Col or
wol ves</w>
ti ves</w>
sm iles</w>
rhy th
mag ical</w>
lun g</w>
li ber
influ ences</w>
h tt
ga thering</w>
for get
d d
ch r
c kets</w>
b low</w>
absol utely</w>
Vi sit</w>
Swit zerland</w>
R ow
N u
G PS</w>
Frank lin</w>
195 0s</w>
no where</w>
mix ture</w>
lear ners</w>
le an</w>
h ills</w>
fre ely</w>
f ought</w>
don ated</w>
commit tee</w>
c m</w>
butter flies</w>
bicy cles</w>
anni versary</w>
al lest</w>
St art</w>
R ock</w>
Pr inc
H O
An der
A .
6 4</w>
su ic
sc an
po et</w>
ph r
ob j
ne ed
low est</w>
lon eliness</w>
k is
incredi ble</w>
exam ine</w>
dark ness</w>
ca ff
al right</w>
a x
Manhatt an</w>
J on
H ow
G all
Develop ment</w>
20 s</w>
wi shed</w>
st atistics</w>
sel ect</w>
re less</w>
ond ers</w>
minim um</w>
ga ins</w>
ga ining</w>
fortun ate</w>
el ementary</w>
e ing</w>
dr ag
discipl ine</w>
depend ent</w>
con trac
bel t</w>
Sar ah</w>
S mo
N ight</w>
In du
Fore ign</w>
F ar
D or
C C
tri al</w>
su s</w>
stu dio</w>
spea ks</w>
sam ples</w>
roman tic</w>
int ell
guid ance</w>
el and</w>
ee m</w>
concentr ation</w>
cogni tive</w>
ar t
advertis ement</w>
Tu be</w>
Jo se
Ev entually</w>
C ra
z er</w>
y i
us tice</w>
tro l</w>
ti m</w>
threat ened</w>
sym pa
strugg led</w>
stea dy</w>
ord able</w>
gra ph</w>
gir l
flo ors</w>
experi encing</w>
dro pping</w>
divor ce</w>
crow ds</w>
cap acity</w>
ag encies</w>
T wain</w>
S leep</w>
P an
Li ving</w>
Fe deral</w>
Bor n</w>
,00 0
ti s
t ank</w>
sm ells</w>
sk y
ro t</w>
remin ded</w>
re ls</w>
ra ys</w>
pe dia</w>
new ly</w>
is ol
hi p</w>
her oes</w>
foreig ners</w>
convinc ed</w>
cl oning</w>
ci vil</w>
I ri
Direc tor</w>
Con sid
198 9</w>
ven ess</w>
uc c
st ages</w>
ro ses</w>
re sted</w>
mini ster</w>
mat ure</w>
mas sive</w>
jo ining</w>
fing er
fem ales</w>
exi sts</w>
er on</w>
contro ls</w>
b our
ari a</w>
anc est
a to</w>
WH O</w>
Victori a</w>
Su per
Lin da</w>
Li ber
Ho li
An na</w>
Adv ent
20 -
ution ary</w>
sc enery</w>
row ed</w>
occur s</w>
m ol
j azz</w>
invol ve</w>
igno red</w>
h i</w>
et te</w>
el ines</w>
discus sed</w>
communic ating</w>
b acks</w>
autom atically</w>
Y u
Xin hua</w>
Pr ince</w>
N BA</w>
Jo in</w>
Europe ans</w>
A ut
7 0
vic tim</w>
vi se</w>
veget able</w>
tu ition</w>
tal ented</w>
shel ves</w>
sac ri
p igs</w>
lux ury</w>
in ch</w>
hor ri
hobb ies</w>
flo ating</w>
explor ation</w>
el sewhere</w>
e ine</w>
e go</w>
dis count</w>
ch -
c enti
bur den</w>
behavi ors</w>
ati vely</w>
agricul tural</w>
Hou ston</w>
H allow
A ward</w>
6 5
umbrel la</w>
trou bles</w>
thank ful</w>
shoul ders</w>
re wards</w>
re l</w>
occu p
now adays</w>
mo tor</w>
her itage</w>
dec ides</w>
carto on</w>
architec ture</w>
Wat ch</w>
Val entine</w>
S top</w>
Phil ad
I cel
D addy</w>
Char lie</w>
4 ,000</w>
y oga</w>
um ber</w>
u k</w>
tro pical</w>
tran sm
soldi er</w>
si ghts</w>
re y</w>
r oughly</w>
prof its</w>
pro posed</w>
pri son
philosoph y</w>
mag ne
l anding</w>
inter active</w>
hur ric
h itting</w>
gen i
ev il</w>
encour agement</w>
clean er</w>
bran ch</w>
bal anced</w>
attemp ts</w>
a ut</w>
Re gi
Phili pp
N an
Go ing</w>
F il
C ri
199 8</w>
wol f</w>
tr uc
stro ke</w>
sm allest</w>
sel fi
pot entially</w>
mean ings</w>
ght ful</w>
ge ons</w>
exp ecting</w>
el phi
don ations</w>
cros sed</w>
car ries</w>
cam ps</w>
a sts</w>
S ee
P M</w>
Jer sey</w>
Fin land</w>
t t</w>
spir its</w>
shoo t</w>
scre ens</w>
rais es</w>
pic nic</w>
manag ing</w>
lo an</w>
g onna</w>
fla g</w>
don ate</w>
con tained</w>
con fu
calend ar</w>
bu il
bi ology</w>
b ath</w>
b ad
ac qui
Wil son</w>
W is
T en</w>
Sim on</w>
Philad elphi
E ric</w>
Build ing</w>
A gr
8 0
ww w</w>
tel es
st om</w>
s ession</w>
religi on</w>
ra w</w>
por tra
per c
op hi
obe se</w>
hu an</w>
g or
fashi onable</w>
est eem</w>
ess ay</w>
effici ency</w>
dist ingu
contin ent</w>
be ating</w>
b or</w>
astr onom
Th r
Os car</w>
Doc tor</w>
Color ado</w>
C lim
Ari z
4 3</w>
3- D</w>
th ri
speec h
si e</w>
per or</w>
k iss</w>
fright ening</w>
enthusias m</w>
cre d
T it
S hel
S af
Ra ther</w>
F ac
C ent
C at
wh eat</w>
v acc
ton gue</w>
sw it
sup pl
soci eties</w>
smart phone</w>
se -
qu ake</w>
pro v
possib ilities</w>
ori al</w>
occa sion</w>
musici an</w>
motiv ation</w>
la sted</w>
it er
inter views</w>
in al</w>
ic e-
enem ies</w>
di sp
deta il</w>
dep th</w>
Wh ich</w>
Ta king</w>
S ally</w>
O ut</w>
Geor gia</w>
C ross</w>
Bo ys</w>
18 6
sion ally</w>
re al-
pass age</w>
nu ts</w>
mu d</w>
mer ely</w>
eng aged</w>
dis cour
dis abilities</w>
de fini
com e
ch ess</w>
ali ze</w>
J eff
D yn
treat ments</w>
sh out</w>
sel ls</w>
reach es</w>
it ate</w>
inter pre
ho pe
grocer y</w>
go ti
chem istry</w>
candi dates</w>
bri gh
boo ts</w>
ap ps</w>
any on</w>
any body</w>
acces sible</w>
T aylor</w>
R ay</w>
Philadelphi a</w>
Hallow een</w>
H ear
At l
A gency</w>
well- being</w>
wel com
ter ing</w>
spac ec
sen ses</w>
s pl
responsib ilities</w>
rac ing</w>
r ul
po tato</w>
p ons</w>
in formed</w>
hur ried</w>
htt p</w>
foc using</w>
ev es</w>
er ts</w>
chec ks</w>
audi ences</w>
ap parently</w>
aff ordable</w>
T radi
Stan ford</w>
Pol ice</w>
Ed ward</w>
Ch eck</w>
ta p</w>
t ent</w>
sun shine</w>
sa iling</w>
pres er
pe ti
op s</w>
li vely</w>
kin dergar
issu ed</w>
int on</w>
ingredi ents</w>
h its</w>
g am
doc uments</w>
cre ature</w>
cir cles</w>
b ility</w>
Ti an
The at
Lit er
D og
C as
B ru
Anim als</w>
4 1</w>
4 ,
war m
w n</w>
struc tures</w>
scar y</w>
regre t</w>
ong side</w>
mathematic s</w>
light ning</w>
li ps</w>
intell ec
har d-
fascin ating</w>
fa iling</w>
envel ope</w>
enor mous</w>
en e</w>
do zens</w>
cu stom</w>
competi tors</w>
c age</w>
bu yers</w>
arm ed</w>
Willi ams</w>
S mar
C lo
Ad mission</w>
4 6</w>
zh en</w>
welcom ed</w>
su per</w>
stres s
secre tary</w>
r o</w>
ma ths</w>
indic ate</w>
i ors</w>
fla v
de struction</w>
c al</w>
Y ears</w>
S n
G ul
Fi f
E din
D ate</w>
Ariz ona</w>
w onders</w>
v es
su red</w>
st a</w>
si onal</w>
set tle</w>
rememb ering</w>
re au</w>
re actions</w>
puzz led</w>
p ure</w>
nutri ents</w>
ma ps</w>
instr ument</w>
guid es</w>
f u</w>
estim ates</w>
environ ments</w>
enem y</w>
disap pointment</w>
des ks</w>
cl ear
butter fly</w>
brilli ant</w>
bor der</w>
applic ants</w>
anno ying</w>
adap t</w>
T wit
P E
F red</w>
En joy</w>
B an
5 0,000</w>
- and</w>
wei gh</w>
sol ved</w>
smar ter</w>
six th</w>
sh ining</w>
resul ting</w>
n avi
low n</w>
ing er</w>
gr anted</w>
estab lish</w>
compla ints</w>
broad ca
ath le
ali ke</w>
ag ent</w>
accommod ation</w>
Sim il
R ol
Mar i
Ken ne
I D</w>
H an</w>
Ex peri
Au th
A long</w>
7 6</w>
/ /
. org</w>
un necessary</w>
tsun ami</w>
trou bled</w>
sens ors</w>
phr ases</w>
lo y
k g</w>
is ed</w>
ful ness</w>
el ev
dram atic</w>
coll ap
br ands</w>
b amboo</w>
at a</w>
Th ous
R M
L a</w>
H om
Gu in
E aster</w>
D A
uni on</w>
sel ler</w>
pu pp
pa per
p on
o v
lea f</w>
for th</w>
em i
con taining</w>
bu ys</w>
b att
asp ect</w>
Com mit
B ang
1. 5</w>
ti ght</w>
th um
sh i</w>
reduc tion</w>
rang ing</w>
pil ots</w>
o is</w>
inter rup
inf ection</w>
ha o</w>
free zing</w>
f ting</w>
determin ation</w>
champi on</w>
c ute</w>
brea th
arti stic</w>
announc ement</w>
Wee k</w>
W u
Si x</w>
Mon ey</w>
J ord
un fair</w>
tex ting</w>
teen th</w>
surroun dings</w>
streng then</w>
second ary</w>
resp ected</w>
prof essors</w>
k o</w>
insp iring</w>
ig nor
dis orders</w>
critici sm</w>
b un
adap ted</w>
V an</w>
R est
Isl ands</w>
Indone sia</w>
Ha i
E L
Cam eron</w>
Al an</w>
win d
un employment</w>
ul a</w>
travel er</w>
thir teen</w>
techn ological</w>
super markets</w>
su it
six -
short age</w>
scholar ship</w>
rel ev
regul ations</w>
per spective</w>
or able</w>
on ship</w>
ob serve</w>
ma il
gent leman</w>
est ate</w>
ele g
desig ners</w>
cas ual</w>
ber ship</w>
bel ong</w>
appro ached</w>
appreci ation</w>
ag er</w>
aband oned</w>
W ei
S tra
J es
In side</w>
199 5</w>
10 :00</w>
wid er</w>
vol ley
tur ers</w>
tr ous
shel f</w>
run ners</w>
rol ling</w>
r um
produc er</w>
po or
n d</w>
m all</w>
hand writing</w>
glo ves</w>
g -
extinc tion</w>
enti onal</w>
as er</w>
adop t</w>
ac les</w>
R og
Le on
Egy p
Bu y</w>
Ber lin</w>
5 1</w>
2 1
199 2</w>
zer o</w>
y en</w>
vir uses</w>
sh a</w>
r ad
question ed</w>
pres erve</w>
ne goti
lec ture</w>
hid ing</w>
far ther</w>
exp enses</w>
electr onics</w>
d ull</w>
cous in</w>
consider ation</w>
coast al</w>
ca fe</w>
bid den</w>
Wor king</w>
Govern ment</w>
Compu ter</w>
thro at</w>
succ eeded</w>
stor y
stor age</w>
self- esteem</w>
rout es</w>
revol ution</w>
reduc es</w>
pa ys</w>
o ven</w>
lun gs</w>
lef t-
landscap e</w>
ill a</w>
gen der</w>
draw ings</w>
competi tions</w>
bl u
ad just</w>
Stud ent</w>
Re g
N E
E ver</w>
E astern</w>
Comm unic
Chri stop
res ource</w>
re gardless</w>
rab bit</w>
princi pal</w>
pl ates</w>
p ants</w>
ow l</w>
nois y</w>
m ess</w>
ic op
er son</w>
embarras sed</w>
elec tion</w>
eigh teen</w>
close st</w>
cho res</w>
ch ann
ans as</w>
St even</w>
P ear
P C</w>
Christi an</w>
Cast le</w>
B lu
2 1st</w>
young sters</w>
wra pped</w>
warm th</w>
wa sted</w>
stress ful</w>
so cks</w>
sing ers</w>
sec tions</w>
ro de</w>
ris en</w>
regi ster</w>
invol ving</w>
in fl
ick ness</w>
i ed</w>
hy dro
en sion</w>
ee ts</w>
ed -
dis ability</w>
di ets</w>
coun sel
bl in
be ef</w>
b ond</w>
Twit ter</w>
S ucc
S eat
Pro duc
L O
Ki m</w>
H an
F arm
Edin burgh</w>
Col l
Ad dress</w>
3 9
transl ated</w>
seas ons</w>
ri ses</w>
purcha sed</w>
program mes</w>
photogra ph</w>
loc als</w>
gu ys</w>
gra vity</w>
fro gs</w>
enjo ys</w>
cur ricul
auth ority</w>
W as</w>
Sp ea
O liver</w>
Mar ia</w>
Ken ya</w>
Goo d
F ro
Ear lier</w>
A venue</w>
A sh
5 4</w>
2. 5</w>
ta stes</w>
smo g</w>
si ght
s wa
re tail
pron oun
photogra phy</w>
p ile</w>
org ans</w>
nod ded</w>
mir acle</w>
m ales</w>
lo ans</w>
invent or</w>
in take</w>
impro ves</w>
ge on</w>
fa ke</w>
dis cover
caff eine</w>
a ur
Y ao</w>
Wr ite</w>
Viet nam</w>
Michel le</w>
Ma king</w>
Hal f</w>
Ex erci
An dy</w>
A .</w>
7 2</w>
198 8</w>
y ang</w>
w ear
threat ening</w>
sim pl
sec ure</w>
s ers</w>
ro ot</w>
rec ru
re turns</w>
produc tivity</w>
practic ed</w>
mo tion</w>
min ded</w>
in no
gun s</w>
fi red</w>
exerci sing</w>
er up
em en</w>
el ess
col um
ber ries</w>
arri ving</w>
appro ved</w>
appl ying</w>
Tor onto</w>
Scot tish</w>
Sci ences</w>
N O
Isra el</w>
Commit tee</w>
Bro ok
Bar ack</w>
Ad ults</w>
tu be</w>
t ant</w>
spacec raft</w>
slow er</w>
pro pos
lu gg
guaran tee</w>
gar den
fri dge</w>
fin ance</w>
es h</w>
co stly</w>
co co
chick ens</w>
benef icial</w>
ap ping</w>
addic tion</w>
act ress</w>
Te en
St at
Iri sh</w>
Choo se</w>
6 2</w>
30 ,000</w>
- F
wh it
wh ist
volcan o</w>
us eless</w>
sup ports</w>
stri ke</w>
sh an</w>
resul ted</w>
pal ace</w>
inter act</w>
ho st
hea vi
fl ash</w>
exp ects</w>
econom ics</w>
clean ed</w>
ben e
b ble</w>
astron aut</w>
ang zhou</w>
after wards</w>
Y an</w>
Wr iting</w>
Un cle</w>
Theat re</w>
Sic huan</w>
Mo on</w>
M e</w>
Jord an</w>
H ur
Gir ls</w>
G ri
Den mark</w>
B lo
Ar gent
30 -
unbeliev able</w>
trans fer</w>
sup pose</w>
sh ers</w>
sear ched</w>
protec tive</w>
promis ing</w>
mess aging</w>
maxim um</w>
k ings</w>
grand ma</w>
gr ab
ext ended</w>
dam aging</w>
d ens</w>
d back</w>
behavi our</w>
aff airs</w>
U C
T enn
S ue</w>
S an
Op ening</w>
M om
Il lin
English -
D V
uni form</w>
truc ks</w>
th ful</w>
tem ple</w>
st ep
sn ack</w>
si vely</w>
relev ant</w>
regi stered</w>
purcha ses</w>
p her</w>
over -
ograp hi
lugg age</w>
jud ges</w>
e-ma ils</w>
dres sing</w>
contribu tion</w>
commit ted</w>
cat tle</w>
be t
bas ically</w>
ballo on</w>
b y
agre es</w>
T ar
So vi
S E
L t
Hol mes</w>
Bri an</w>
3 8
ver bal</w>
trous ers</w>
too th
sal ad</w>
s in</w>
s ex
r ily</w>
pro ven</w>
practic ing</w>
ob st
mo di
k ick</w>
in dex</w>
gest ure</w>
en i
el ected</w>
che er</w>
be sides</w>
ban ana</w>
Te ens</w>
TH E</w>
Sec ond
Seat tle</w>
O '
Mar yland</w>
Mal ay
J ew
B illy</w>
B E
Agr icul
wi ves</w>
vo y
v ention</w>
un ci
tw enti
spot ted</w>
ski ing</w>
sam ple</w>
r ics</w>
pa ths</w>
ou ter</w>
oper a</w>
k l
k er
is es</w>
investig ation</w>
happ iest</w>
guid elines</w>
grand children</w>
ext ent</w>
dea d
cont em
col ours</w>
bor row</w>
au c
as sume</w>
ang le</w>
ad equ
achiev ing</w>
Thous ands</w>
T S</w>
Sw iss</w>
P ress</w>
K .</w>
Ci vil</w>
Christop her</w>
C O</w>
5 6</w>
3 7
too th</w>
ther ine</w>
th ur</w>
suppor ting</w>
sn akes</w>
rel ative</w>
pur poses</w>
proc esses</w>
pas sport</w>
lo sses</w>
lap top</w>
jo int</w>
is ms</w>
gest ures</w>
fl ood</w>
fic ations</w>
f its</w>
discus sions</w>
def ense</w>
conc ep
color 1</w>
citiz en</w>
c ence</w>
associ ation</w>
acti vely</w>
W en
Ri o</w>
Mar gar
L ew
Illin ois</w>
F it
Di ego</w>
D A</w>
Ch annel</w>
Bl ack
A dam</w>
valu ed</w>
t z</w>
speciali st</w>
se ed</w>
s chem
re fer</w>
pp ers</w>
jew el
ir y</w>
inter viewed</w>
exp an
dol ls</w>
cru el</w>
crimin als</w>
cri mes</w>
corpor ate</w>
bur st</w>
bl oo
be e</w>
argu ed</w>
analy sts</w>
al ongside</w>
Y a
Swe dish</w>
R un
Ne ther
I ra
Fun d</w>
Dyn asty</w>
D an</w>
C N
wor th
wi reless</w>
vill agers</w>
un its</w>
tre ats</w>
sugges tion</w>
spir it
ri st</w>
re views</w>
pri mar
pengu ins</w>
orig in</w>
ne uro
in doors</w>
hun g</w>
gu ards</w>
gr and</w>
ext end</w>
em ails</w>
compar ison</w>
chi p</w>
car rots</w>
al oud</w>
Tr ust</w>
Sa ve</w>
Nat ural</w>
J im
Happ iness</w>
Dog s</w>
B at
Anim al</w>
t ance</w>
str ing</w>
respond ents</w>
ran ked</w>
r i</w>
po ckets</w>
mur der</w>
m ans</w>
in kers</w>
fa i
eye sight</w>
employ er</w>
dis like</w>
del ay</w>
de dic
d ily</w>
contribu ted</w>
ag e-
Wal king</w>
U R
T ig
N av
L ord</w>
Jose ph</w>
A wards</w>
A L</w>
199 6</w>
volunte ering</w>
uni forms</w>
tr ary</w>
susta inable</w>
suic ide</w>
si ans</w>
sandw ich</w>
s our
multi ple</w>
k ite</w>
inter action</w>
ic king</w>
fos sil</w>
exha u
e ter</w>
concer ts</w>
cha p
ch eating</w>
candi date</w>
bro ad</w>
ati t
appro xim
accomp ani
Sm all</w>
Shen zhen</w>
E ating</w>
Au stri
Ar thur</w>
5 3</w>
volley ball</w>
so oner</w>
ro yal</w>
res erv
pric ed</w>
pol it
n ap</w>
mamm als</w>
lo ading</w>
is ure</w>
glo b
fri ed</w>
four teen</w>
en s
e du
consi sts</w>
comb ine</w>
ancest ors</w>
accompani ed</w>
Secre tary</w>
S even</w>
Gr ad
Com mission</w>
Bro ad
A gain</w>
6 7
201 7</w>
z e
the tic</w>
tal lest</w>
ta ils</w>
stri king</w>
strate gies</w>
star ed</w>
sla ves</w>
ro of
recei ves</w>
prog res
princi ple</w>
p in
geni us</w>
fr ag
fi er
ef f</w>
dist ances</w>
critici zed</w>
commit ment</w>
chec k
ad mir
Zh ou</w>
V it
Nether lands</w>
M un
L ily</w>
H ours</w>
ti s</w>
ta pe</w>
t end
persu ade</w>
lec tures</w>
er als</w>
eal ing</w>
dinosa urs</w>
dest inations</w>
des erve</w>
count less</w>
control ling</w>
compla ining</w>
celebr ations</w>
campa ig
blo gs</w>
bene ath</w>
associ ate</w>
ab s
Wat son</w>
Thir d</w>
Oper a</w>
K ev
K at
Bo ard</w>
A unt</w>
8 8
5 5
w ears</w>
v alley</w>
tw in</w>
s ever
rac es</w>
pur se</w>
prin ter</w>
ob tain</w>
n an</w>
li fel
it -
impro vements</w>
hel icop
he ated</w>
gre y</w>
floo ds</w>
figu red</w>
exi sted</w>
ent -
el lit
educ ators</w>
di ve</w>
coun ter
certi fic
celebr ating</w>
b ound</w>
ang rily</w>
Wild life</w>
S in
S ea
Re public</w>
N ative</w>
E at</w>
Comm unity</w>
C oc
6 ,000</w>
us age</w>
uri ties</w>
sugg esting</w>
speci fically</w>
so da</w>
sil k</w>
s ounded</w>
refl ected</w>
ref ers</w>
mini str
k iller</w>
initi al</w>
imp anz
hoo ds</w>
hol ders</w>
ha med</w>
gener ous</w>
et e</w>
discover ies</w>
deli ghted</w>
d ess
cir cul
chann els</w>
cell phone</w>
c ans</w>
P ole</w>
Margar et</w>
Her itage</w>
H ey</w>
Ali bab
ver si
tren ds</w>
sur f</w>
squ ir
proc essing</w>
offici ally</w>
ly n</w>
is s
inte gr
inc es</w>
im er</w>
honest y</w>
head master</w>
expla ining</w>
brea st</w>
Y ale</w>
Ven ice</w>
Rest aur
Mis si
Dick ens</w>
D ig
Cl inton</w>
5 ,
w age</w>
v in</w>
ton ight</w>
t ended</w>
stat ue</w>
sp eeds</w>
sk ating</w>
s /
res ort</w>
ra iny</w>
ome ter</w>
med als</w>
mar athon</w>
her o
har dest</w>
greet ing</w>
foo lish</w>
fir mly</w>
di et
d i</w>
cor al</w>
bot tled</w>
bor rowed</w>
boo st</w>
adv oc
a .</w>
Sun days</w>
St ay</w>
Ph ys
N ancy</w>
L an
Icel and</w>
199 4</w>
12 -
tem p
survi v
sh eet</w>
s or</w>
or bit</w>
nation wide</w>
l ined</w>
it ations</w>
inv est</w>
ic e
e p</w>
diagno sed</w>
cand les</w>
avo ided</w>
atit ude</w>
ac res</w>
W ol
Su per</w>
R on
Mon t
Li sten</w>
De ath</w>
Dav is</w>
197 0</w>
tradi tionally</w>
tom ato</w>
thir ty-
shor tly</w>
sha me</w>
rela x
refer red</w>
per mitted</w>
p ir
nois es</w>
mer ch
fee dback</w>
di verse</w>
demon str
che erful</w>
boo king</w>
b lowing</w>
Sec urity</w>
S pi
J eff</w>
Environ mental</w>
Ch er
B eli
A D</w>
5 :00</w>
24 -
20 20</w>
198 6</w>
' an</w>
u el</w>
tra p</w>
stric ts</w>
stret ch</w>
spec t
sh r
s ought</w>
ro ad
regi onal</w>
re sist</w>
re pa
p anic</w>
p acking</w>
ore r</w>
or ds</w>
ol d-
man -made</w>
hon ored</w>
foc uses</w>
compe ting</w>
c ore</w>
bour ne</w>
aci al</w>
Tem ple</w>
Mar ie</w>
M .</w>
J un
Fri end
Cu stom
B on
Al len</w>
9 00</w>
w een</w>
tu rer</w>
trag edy</w>
st ated</w>
some day</w>
repres ented</w>
poor ly</w>
pe an
medi um</w>
mea suring</w>
kne es</w>
key board</w>
ici ent</w>
ic on</w>
hand some</w>
gg ers</w>
fant asy</w>
f ers</w>
dem anding</w>
d y
cre te</w>
con sume</w>
coll ections</w>
ch annel</w>
bri dges</w>
am ent</w>
Some thing</w>
Rob inson</w>
O J</w>
Nor m
Min n
M ul
L y
L u</w>
Kev in</w>
Ji ang
Ex change</w>
E bol
Char lot
C el
Ben j
Bel gi
B ut
1, 500</w>
y ards</w>
w et
view er</w>
spac es
sha dow</w>
primar ily</w>
pres sed</w>
politici ans</w>
pi one
o gue</w>
mel ting</w>
j am</w>
house holds</w>
goo d-
g ad
figh ters</w>
f ear
e dition</w>
disapp earing</w>
di sh
decl ined</w>
cra shed</w>
c able</w>
att end
ar do</w>
ab use</w>
Thr oughout</w>
S l
S and
Jen ni
J ean</w>
J ac
I ce</w>
Elec tr
Cor n
5 9</w>
wa sting</w>
unci ation</w>
tra il</w>
th eless</w>
spor ting</w>
schoo ling</w>
rewar ding</w>
note book</w>
ho sts</w>
ener ge
di gging</w>
clas si
as sist</w>
ang ar
T op</w>
Sovi et</w>
N ep
L yn
Jenni fer</w>
Guang zhou</w>
En er
E dison</w>
C Ds</w>
Ac t</w>
- and-
* *
ti er</w>
star ing</w>
smart phones</w>
re in
pay ments</w>
occa sionally</w>
motiv ated</w>
le isure</w>
greet ed</w>
gra in</w>
fire works</w>
explo sion</w>
empha sis</w>
confu sion</w>
back yard</w>
b ats</w>
ari um</w>
adm ire</w>
W on
T V
P ak
Lew is</w>
I F
Fol lowing</w>
F ire</w>
Bet ween</w>
Ba ker</w>
Alibab a</w>
198 0</w>
w are</w>
sub stances</w>
streng th
respon ses</w>
p tions</w>
p acks</w>
mon ster</w>
inter nal</w>
instruc tor</w>
ich es</w>
gradu ating</w>
fri ger
ellit es</w>
e- to-
dr ought</w>
docum entary</w>
del a
conduc t</w>
ch ol
ch i</w>
ch er
carto ons</w>
avo iding</w>
as hamed</w>
all ing</w>
Wal k</w>
T ed</w>
Serv ices</w>
Sen ior</w>
E mp
E l</w>
C off
Br on
9 :30</w>
6 7</w>
y st
war s</w>
tiv eness</w>
tit les</w>
tim ate</w>
them es</w>
st an</w>
sacri f
refl ects</w>
ran ean</w>
q ing</w>
pou red</w>
pi ed</w>
law yers</w>
lad der</w>
l an</w>
kno ck</w>
hu gged</w>
grow n-
g ary</w>
exhi bit</w>
contribu tions</w>
civili zation</w>
T- shirt</w>
Sk y
S now</w>
Pl ay</w>
J ess
Gall ery</w>
C .
7 7</w>
198 7</w>
18 th</w>
ven ting</w>
vac ations</w>
v als</w>
ut ers</w>
tion ing</w>
tex ts</w>
ten sion</w>
t ends</w>
rub ber</w>
reali zing</w>
ra il</w>
pregn ant</w>
poo ls</w>
person alities</w>
p ens</w>
ol a</w>
occa sions</w>
judg ment</w>
hy dr
head ache</w>
h ats</w>
ger ms</w>
foo l</w>
fashi oned</w>
extinc t</w>
el der</w>
di stricts</w>
cros s-
celebr ity</w>
c king</w>
boy friend</w>
blan ket</w>
ann a</w>
am -
ad ministration</w>
Tick ets</w>
N ig
Li ve</w>
J in
Gu ar
Ebol a</w>
C ru
5 8</w>
sw eat</w>
public ation</w>
promo tion</w>
photogra pher</w>
it ory</w>
girl friend</w>
floo ding</w>
ff s</w>
even ings</w>
enjoy ment</w>
eng age</w>
el son</w>
ee ping</w>
educ ate</w>
dom in
di g</w>
cot ton</w>
cont ext</w>
bo ther</w>
back pack</w>
asp ir
ar gues</w>
approxim ately</w>
Tur n</w>
Patr ick</w>
Pak ist
Ob viously</w>
Moun tains</w>
M organ</w>
L ong
Eng ine
E i
Cour t</w>
B ell</w>
198 5</w>
10 .
year ly</w>
wea pons</w>
t ably</w>
stoc ks</w>
sof a</w>
seem ingly</w>
se l</w>
rec alled</w>
publi shing</w>
peti tion</w>
o e</w>
less ly</w>
indic ates</w>
hel pl
f ancy</w>
e or
d yn
d u</w>
conv entional</w>
commer ci
bul lying</w>
bu cks</w>
audi o</w>
after -
Y ours</w>
Vill age</w>
S er
RM B</w>
O w
Hu ang</w>
H ope</w>
Grand pa</w>
F ut
Exerci se</w>
Em ma</w>
Co st</w>
CC TV</w>
Ap plic
15 -
underst and
trac king</w>
thir d-
recy cle</w>
rab bits</w>
promis es</w>
prev ented</w>
ou ts</w>
ma yor</w>
in spec
fer ence</w>
f ile</w>
det ect</w>
decor ated</w>
de par
believ ing</w>
barri ers</w>
apologi ze</w>
ad vise</w>
See ing</w>
R ail
Pro b
Par ty</w>
P ower</w>
Liter ature</w>
H u</w>
Fil m</w>
Atl anta</w>
woo d
vo id</w>
transl ation</w>
t our
sub ur
shar ply</w>
sen iors</w>
s light</w>
rol ler</w>
res erve</w>
rej ected</w>
re friger
p ills</w>
mo ther
la dies</w>
intellec tual</w>
imag in
head aches</w>
h ei
es o
dri ed</w>
di ans</w>
deg C</w>
defin ed</w>
curricul um</w>
condition ing</w>
con crete</w>
bri ties</w>
bed time</w>
am ic</w>
Y un
Wr it
Wi ki
Jim my</w>
Jer ry</w>
G old</w>
F air</w>
uni versal</w>
sha de</w>
sh eets</w>
sett l
re covered</w>
ra ins</w>
pp i</w>
pen ny</w>
ori e</w>
o ved</w>
mon d</w>
mi er</w>
mal aria</w>
ligh ter</w>
journ alist</w>
ge ography</w>
forget table</w>
fin ed</w>
e th</w>
di c</w>
coll ec
clo cks</w>
ch ew
b iting</w>
absor b</w>
abs ence</w>
X u</w>
U r
Par t</w>
P .
M olly</w>
Juli a</w>
Jess ica</w>
J am
G a
E U</w>
B ob
- like</w>
wel fare</w>
weigh s</w>
wa king</w>
time -
t ari
ster e
squ it
proc essed</w>
princi ples</w>
pe er</w>
p ity</w>
ow e</w>
mol ec
mem bership</w>
inst antly</w>
hambur gers</w>
gr at
fun dam
deli ght</w>
con trary</w>
collea gue</w>
ci a</w>
challeng ed</w>
bi tions</w>
ber ry</w>
be at
barri er</w>
accep tance</w>
Zh e
R esp
P op
P as
Missi ssi
Lo ts</w>
L ang</w>
Ex pl
Dre am</w>
6 8
20 50</w>
199 3</w>
ur gent</w>
un clear</w>
tun nel</w>
th ood</w>
slee py</w>
sel lers</w>
ro m
repe at
pro j
pre venting</w>
pr ou
on y
moun tain
man ned</w>
loo se</w>
kindergar ten</w>
in struction</w>
gu m</w>
gre et</w>
gh o
fun eral</w>
fun ding</w>
eat ers</w>
d les</w>
clu es</w>
cli ents</w>
chat ting</w>
be dro
ban king</w>
ann e</w>
U. S</w>
Tra vel
Roo sev
Li ver
F ew</w>
Cul ture</w>
Charlot te</w>
Bru ce</w>
Bet ty</w>
Be at
8 :00</w>
6 3</w>
war nings</w>
ver sions</w>
ti ghtly</w>
sym bol
su m</w>
sat ellites</w>
re form</w>
qu een</w>
pres sures</w>
pic ks</w>
pack ages</w>
neighbor ing</w>
multi -
lo ses</w>
jour neys</w>
is l
hun ters</w>
ever -
easi est</w>
dis covering</w>
d ong</w>
ch impanz
anno yed</w>
aff ecting</w>
Zhe jiang</w>
Y uan</w>
Tel evision</w>
Saf ety</w>
R yan</w>
R evi
Philipp ines</w>
Mississi ppi</w>
Med iter
M O
D ick</w>
D er
Cham pi
A ges</w>
A BC</w>
tur tles</w>
sing le-
s adly</w>
pur sue</w>
pu b
por ted</w>
occu pied</w>
min or</w>
m m</w>
lun ar</w>
log ical</w>
int ense</w>
ick en</w>
fail ures</w>
escap ed</w>
enthusi astic</w>
energe tic</w>
di sm
dest ri
consum ed</w>
b row
arri ves</w>
analy zed</w>
air ports</w>
X -
Roosev elt</w>
Pho to
P ur
J ason</w>
F O
E R</w>
C anyon</w>
9 0
7 8</w>
6 8</w>
12 .
yr am
ur ged</w>
treas ures</w>
t ball</w>
susp ect</w>
satis fy</w>
robo tic</w>
r h
pur ple</w>
present ation</w>
pres sion</w>
pow ers</w>
po sts</w>
p son</w>
p se</w>
p enc
optim istic</w>
ographi c</w>
influ ential</w>
i ans</w>
har mon
guaran te
gard ening</w>
fro g</w>
forc ing</w>
ent ally</w>
d il
conflic ts</w>
cha e
ch op
categ ory</w>
categ ories</w>
book store</w>
bil lions</w>
bas kets</w>
au to</w>
arg uments</w>
air -
ad mi
accomp lish
` t</w>
Wis con
Sh op
S ul
P it
P ay</w>
N one</w>
Mel bourne</w>
M obile</w>
Li st</w>
J an</w>
Cul tural</w>
Cap tain</w>
Ander son</w>
Ad ult</w>
7 9</w>
7 8
5 7</w>
4 8
v ul
us s</w>
the ories</w>
sur ve
strong est</w>
sc rat
ro cket</w>
repeat edly</w>
re d
prev ention</w>
pre dat
pain ter</w>
k ills</w>
grat ul
expres sing</w>
dis counts</w>
di se</w>
descri bing</w>
defini tion</w>
de l</w>
curren cy</w>
br a</w>
as si
appear ing</w>
a qu
W ant</w>
Tea m</w>
St ore</w>
Mediter ranean</w>
La ura</w>
Du ke</w>
C ook</w>
7 3</w>
6 1</w>
worl ds</w>
up stairs</w>
ti sm</w>
su peri
rich est</w>
resist ance</w>
puni shed</w>
pron unciation</w>
promo ting</w>
prof ession</w>
po st-
n a
ici an</w>
hear ted</w>
gg y</w>
flow ing</w>
expan sion</w>
exp anding</w>
dis crimin
di spo
de partments</w>
dat ab
ch ill</w>
bl ues</w>
ben ch</w>
an ch
am bul
ac kers</w>
a .m.
Y u</w>
X i</w>
Tom my</w>
T og
Pro tec
Mexic an</w>
M ir
Kenne dy</w>
Kar en</w>
Ger mans</w>
Gener ally</w>
F ish</w>
Con fu
C ancer</w>
Brook lyn</w>
Benj amin</w>
198 4</w>
w ich</w>
um ul
reser ves</w>
pu b</w>
promo ted</w>
poo rer</w>
plo t</w>
pack aging</w>
p rec
oper ated</w>
lo g</w>
lat ter</w>
gg er</w>
el le</w>
coll ar</w>
ca p</w>
b is
ar rested</w>
appro val</w>
an i</w>
am us
accep ting</w>
Xi ao</w>
Wee k
Tr ade</w>
Net work</w>
Loc al</w>
Ener gy</w>
Ch eng
z i</w>
wait ress</w>
vis a</w>
un forgettable</w>
un familiar</w>
thre ats</w>
soci ally</w>
scre aming</w>
remem bers</w>
re sume</w>
person ally</w>
p es
jewel ry</w>
it y-
i -
hur ts</w>
heavi er</w>
fea thers</w>
dis played</w>
concep ts</w>
caf es</w>
bri ef
ar range</w>
air lines</w>
ac ed</w>
Te aching</w>
T O</w>
Sur pri
St one</w>
S ong</w>
N umber</w>
Ma j
Lea gue</w>
Experi ence</w>
Ex press</w>
E- mail</w>
Coun try</w>
Consid er</w>
Cam p
Bu reau</w>
Af gh
9 8</w>
zh e
v eter
uti ves</w>
ti l
six ty</w>
short- term</w>
secre tly</w>
sc ope</w>
sa ves</w>
reti re</w>
r d</w>
pub lish</w>
p anda</w>
nec kl
navi g
min ing</w>
middle- aged</w>
man kind</w>
m oo
lo ver</w>
k icked</w>
in visible</w>
hi ke</w>
h iring</w>
don ation</w>
dec iding</w>
d .</w>
cra w
contem porary</w>
cap ture</w>
as tics</w>
an es</w>
adv ances</w>
adul thood</w>
accomp lish</w>
T u</w>
S T
O reg
Liver pool</w>
J .</w>
Coff ee</w>
Bet ter</w>
z oos</w>
two- thirds</w>
trav elled</w>
speech es</w>
sm an</w>
s u</w>
ru shing</w>
ren tal</w>
r am
oun ding</w>
open -
manufac turing</w>
lo ads</w>
inc id
hand -
habit ats</w>
grab bed</w>
ge -
for give</w>
es ome</w>
en -
doc ument</w>
cri ption</w>
cer ely</w>
bel oved</w>
al ed</w>
Tog ether</w>
S et</w>
Off ici
Nov .</w>
H arri
Fr anc
D ur
Con nec
Ch ange</w>
C ir
Al zhe
199 1</w>
. uk</w>
voy age</w>
ter min
super vis
sun set</w>
reci pe</w>
out break</w>
n an
lam p</w>
ho o</w>
ec o-
dou bled</w>
dis agree</w>
be i</w>
bac ked</w>
ac knowled
You Tube</w>
Y ang
Wiki pedia</w>
Thom pson</w>
Te acher</w>
Mil lions</w>
L un
H angzhou</w>
Gul f</w>
Dr agon</w>
Do g</w>
Alzhe imer</w>
v is</w>
tou gh
sup porters</w>
spid er</w>
sli pped</w>
sim ul
ri sky</w>
rel ate</w>
recomm end
open ha
obe y</w>
mode st</w>
m un
la yers</w>
l d
in her
hal f
f ills</w>
denti st</w>
defe at</w>
d ances</w>
cont ents</w>
ap pointment</w>
ali zing</w>
acc used</w>
T own</w>
Gr ace</w>
D ru
Cont act</w>
Con sum
Com pared</w>
B S</w>
B .
A void</w>
A N</w>
t aller</w>
symbol s</w>
subst ance</w>
sub scri
self- confidence</w>
sandw iches</w>
relax ation</w>
ow n
nation ally</w>
li v
lea ther</w>
la bel</w>
jud ged</w>
isol ated</w>
illu str
horri ble</w>
high- tech</w>
fri es</w>
fo x</w>
er ness</w>
el im
du g</w>
dis plays</w>
desig ning</w>
coun ty</w>
contain er</w>
connec ting</w>
co st
cele brities</w>
c ough</w>
bar ely</w>
b ent</w>
autom obile</w>
au to
attrac ts</w>
athle tic</w>
addic ted</w>
Wal t</w>
W est
V eg
Re uters</w>
Pe ace</w>
Nor way</w>
Loc ation</w>
L im
Fin ding</w>
1 /
work force</w>
u ts</w>
tain ly</w>
sw ept</w>
squit oes</w>
shut tle</w>
satis fying</w>
pol itely</w>
pois on</w>
ne gl
n `t</w>
min d
m ere</w>
j ams</w>
inv itation</w>
hy po
hur ting</w>
frequ ency</w>
fi ghts</w>
feat ured</w>
exp ense</w>
exp anded</w>
exc eption</w>
con ver
commer ce</w>
centi meters</w>
canc ers</w>
bl amed</w>
R am
R I
Me dia</w>
M agaz
Hun dreds</w>
Econom ic</w>
E S</w>
Confu ci
C at</w>
C H
Alex ander</w>
8 6</w>
wh el
u d</w>
tis sue</w>
ther more</w>
swa m</w>
stat ements</w>
sh ots</w>
schem e</w>
r it
pu ty</w>
pret end</w>
pe d
ow nership</w>
on aire</w>
high- speed</w>
f ond</w>
el e</w>
decreas ed</w>
con serv
compani on</w>
com mu
br ick</w>
b um
aw n</w>
aw k
art work</w>
ar in</w>
ambi tious</w>
ack er</w>
ac id</w>
Vit amin</w>
T ours</w>
Por tu
Loc ated</w>
Haw king</w>
D. C.</w>
Cer tainly</w>
Br an
B un
B row
Argent ina</w>
A pp
theat ers</w>
stam p</w>
shi pping</w>
sel s</w>
sa il</w>
s ings</w>
repor ting</w>
r ated</w>
prov inces</w>
prou dly</w>
pe destri
lot tery</w>
hel or</w>
go ssi
fla sh
es tion</w>
er rors</w>
ent ers</w>
eigh th</w>
direc tors</w>
cru ise</w>
co ordin
cli sts</w>
carri er</w>
bedro oms</w>
b lown</w>
ar a</w>
Tit anic</w>
Teen agers</w>
Po or</w>
Man chester</w>
La w</w>
Ira q</w>
Indi ana</w>
HI V</w>
H il
E d</w>
Da ve</w>
D ic
Ch an</w>
Ch all
Bud d
Ath ens</w>
An dre
7 :30</w>
7 1</w>
ta h</w>
swee ts</w>
six teen</w>
ru ins</w>
ro o
refl ection</w>
pil low</w>
pat ent</w>
p our</w>
ninet een</w>
m ass
leg isl
k ites</w>
iP od</w>
gi fted</w>
fisher men</w>
exhi bitions</w>
ess ment</w>
effici ently</w>
diplom a</w>
continu ous</w>
con vince</w>
col ds</w>
bit ter</w>
back grounds</w>
analy st</w>
adequ ate</w>
Tick et</w>
Row ling</w>
Offici als</w>
N elson</w>
L am
Know ing</w>
Colum bus</w>
C openha
Br ad
Bas ed</w>
Ar m
Antar ctic</w>
: 15</w>
- free</w>
z ones</w>
z i
w ins</w>
underst ands</w>
tru sted</w>
tri be</w>
shoc king</w>
rewar ded</w>
rain fall</w>
r uled</w>
r on</w>
pro portion</w>
polic emen</w>
pl ed</w>
pe o
monit oring</w>
manufac turers</w>
leg ally</w>
kee pers</w>
i di
h o</w>
h id</w>
gra ph
go ats</w>
fr ame</w>
ferti liz
exec utives</w>
ever theless</w>
environ mentally</w>
enter taining</w>
el er
desper ate</w>
curi osity</w>
com ic</w>
bis cu
b y-
appe ti
al ert</w>
absor bed</w>
W ea
Star bucks</w>
St ory</w>
P ass
M IT</w>
K er
H and
Farm ers</w>
Ex hi
E s
Cl ick</w>
Braz ili
Bir ds</w>
Ar ti
A ff
wea ker</w>
volcan oes</w>
text book</w>
tar gets</w>
schol ars</w>
s ink</w>
ri ders</w>
resp ect
pr ince</w>
poll ut
mem orable</w>
ins ect</w>
grad er</w>
gl ance</w>
fru strated</w>
flow s</w>
f li
exc ep
em a
d row
bree ding</w>
b at</w>
ass em
ann ah</w>
ac re</w>
V in
Tig er</w>
Ph illi
Mo vi
Mar ket</w>
MP 3</w>
M ach
Li ght</w>
K it
H op
Dar win</w>
Copenha gen</w>
Bar bie</w>
5 00
x on</w>
un willing</w>
tion aries</w>
ti vities</w>
suff icient</w>
strugg les</w>
streng ths</w>
squ ee
seas onal</w>
sa fe
ph y
pass word</w>
particip ating</w>
or ous</w>
ob servation</w>
no ses</w>
neighbor hoods</w>
jo y
inst inc
ing ual</w>
hon ey
fo g</w>
fier ce</w>
exhi bits</w>
ex pe
ex it</w>
er able</w>
el ement</w>
diff er</w>
d ads</w>
certain ty</w>
car t</w>
cal orie</w>
aw s</w>
appreci ated</w>
ad ministr
a sion</w>
Wiscon sin</w>
U g
R evolution</w>
R eal</w>
Oreg on</w>
Fore st</w>
Exc use</w>
Car l</w>
Bob by</w>
B M
Am ster
th western</w>
stea m</w>
st ealing</w>
rel ation</w>
regar ding</w>
re sting</w>
publi sher</w>
parti cles</w>
par ked</w>
ninet een
min erals</w>
mil d</w>
magne tic</w>
leg end</w>
kne e</w>
is sion</w>
er to</w>
down stairs</w>
discus sing</w>
desi red</w>
depend ence</w>
de fic
cul ar</w>
coco a</w>
cl ay</w>
businessm en</w>
aw ful</w>
abo ard</w>
Pl an</w>
P ass</w>
Holi day</w>
Gra ham</w>
Fur thermore</w>
Cap e</w>
C ari
C ard</w>
Bir d</w>
Amster dam</w>
Ad d</w>
8 :30</w>
1 10</w>
. com
whisp ered</w>
w ound</w>
v et</w>
v ate</w>
tr e</w>
sever ely</w>
renew able</w>
pol e</w>
out -
o grams</w>
n ity</w>
ma ster
l ane</w>
kid ney</w>
gas ol
for k</w>
fa x</w>
f ate</w>
exhau sted</w>
es says</w>
ea u</w>
e z</w>
det ective</w>
contro versi
con qu
bur nt</w>
bur ns</w>
bu cket</w>
attrac ting</w>
ambul ance</w>
admi red</w>
adm its</w>
acqu ire</w>
a than</w>
T reas
Sy stem</w>
Sor ry</w>
Satur days</w>
S ig
Rec ent</w>
Mon a</w>
Ma y
Lar ry</w>
Bar cel
B ow
Agricul ture</w>
193 0s</w>
t .
sp r
sli de</w>
skir ts</w>
sh ell</w>
s ank</w>
ri ght-
requ ests</w>
lo v
in sist</w>
in formal</w>
ham es</w>
floo ded</w>
f eared</w>
ell ers</w>
el ine</w>
draw s</w>
di tions</w>
deal t</w>
cot t
co d
beat en</w>
b allet</w>
acc ent</w>
a .m</w>
W ester
T hames</w>
Ste p</w>
Simil arly</w>
R id
K ri
E mer
E mail</w>
Cin der
B ear</w>
5 th</w>
vi br
val ent</w>
ty ping</w>
tur key</w>
tr o</w>
tour nam
the sis</w>
team work</w>
sympa thy</w>
si gh
sh e
s ickness</w>
ric her</w>
retail ers</w>
restric tions</w>
re minds</w>
r acial</w>
pum p</w>
po sing</w>
pi e</w>
over whel
orph an
or -
op pon
min ority</w>
li ament</w>
law n</w>
k angar
int ention</w>
in form</w>
hand ling</w>
gh ua</w>
e ater</w>
con firm</w>
cl eared</w>
ch eat</w>
bri d</w>
Y O
W right</w>
W ild</w>
W ell
Tw enty</w>
S andy</w>
Restaur ant</w>
Ra dio</w>
Q ing
Mo sco
Mat t</w>
John ny</w>
Jeff erson</w>
J ustin</w>
Hear t</w>
H em
Gol d
Fam ilies</w>
Car e
C ar</w>
Barcel ona</w>
B ul
7 4</w>
19 60</w>
wor ms</w>
wit n
w ages</w>
vari ed</w>
v ey</w>
suit case</w>
sales man</w>
sa iled</w>
refer ence</w>
reci pes</w>
perform ers</w>
op posed</w>
l end</w>
it y
home -
go at</w>
fun ded</w>
et t</w>
ester ol</w>
embarras sing</w>
el low
di vision</w>
develop ments</w>
def end</w>
construc ted</w>
consider able</w>
co aches</w>
be st
appro aching</w>
Xi a
Tur key</w>
To yo
T ang</w>
Mosco w</w>
Malay sia</w>
M A
Guin ness</w>
Em plo
Clim ate</w>
Cari b
9 7</w>
7 :00</w>
weak ness</w>
vul ner
vol un
un ited</w>
tr ick
the w</w>
stra w
sel fish</w>
requi rement</w>
pri ority</w>
ou tw
mu sh
m ud
j ar</w>
inv ent</w>
id ity</w>
h ori
grand son</w>
fil m
figh ter</w>
ext ensive</w>
explan ations</w>
e-to- face</w>
di os</w>
co ck
che str
bi ologist</w>
ap ol
analy ze</w>
UN ES
Spea king</w>
S on
P A</w>
Nic hol
Mo z
Man agement</w>
J ay</w>
Emp ire</w>
C ou
C lear
3 4
-F i</w>
weigh ed</w>
w ire</w>
un wanted</w>
transl ate</w>
to x
t ful</w>
sp her
sp ell</w>
seven th</w>
sci ences</w>
school work</w>
rid icul
rhyth m</w>
po ts</w>
pas sive</w>
pa th
lo go</w>
listen ers</w>
laun dry</w>
is o
hol der</w>
gr atitude</w>
fin est</w>
ff el</w>
car es</w>
bri de</w>
answ ering</w>
ann ually</w>
Y esterday</w>
Tru e</w>
Q i
Pakist an</w>
K id
H ead</w>
Gr am
Con trol</w>
B ond</w>
A -
8 7</w>
v ent
trans form</w>
ti dy</w>
thi eves</w>
terr ori
sight seeing</w>
selfi e</w>
s essions</w>
res em
regi stration</w>
ra h</w>
proc edu
pow der</w>
penc ils</w>
mo s
migr ation</w>
inf ections</w>
helicop ter</w>
gra ins</w>
gr ound
di men
dedic ated</w>
day time</w>
datab ase</w>
chol esterol</w>
belong ed</w>
au s</w>
athlet e</w>
ast ro
Wei bo</w>
S ophi
S now
Rom ans</w>
Po int</w>
Pl us</w>
Oc t.</w>
Nan jing</w>
Mand arin</w>
M et
Leon ardo</w>
L ine</w>
Jon athan</w>
I R
Gir l</w>
G ord
Fut ure</w>
E .</w>
Com petition</w>
A I</w>
6 9</w>
tri als</w>
tow ers</w>
stea dily</w>
sta dium</w>
represent ative</w>
re sident</w>
re moving</w>
ran dom</w>
rain forest</w>
quick er</w>
pum p
propos al</w>
procedu res</w>
prison ers</w>
pre ne
poss essions</w>
pan els</w>
neckl ace</w>
ma sters</w>
m n
low ered</w>
k el
jun gle</w>
high light</w>
hand s-
hambur ger</w>
feat uring</w>
environ ment
en der</w>
ed dy</w>
discour aged</w>
devo te</w>
cu p
consum ing</w>
comp on
clin ical</w>
bi c</w>
bel ongs</w>
bas sad
al together</w>
acc eler
Wa it</w>
S pe
Roc k
Mar tha</w>
Ma x</w>
Fri days</w>
Da ys</w>
Cinder ella</w>
Cheng du</w>
Ch at</w>
CO 2</w>
Bu ff
Ar my</w>
A part</w>
8 9</w>
15 th</w>
yi eld</w>
st ability</w>
spirit ual</w>
sk ill
ser ver</w>
se ated</w>
scen ic</w>
sal aries</w>
rev eal</w>
plac ing</w>
par ental</w>
out going</w>
kil ograms</w>
j ack
gall ery</w>
er ror</w>
e ous</w>
dram atically</w>
divid e</w>
destro ying</w>
complet ing</w>
char ging</w>
buil ds</w>
ble w</w>
bl ings</w>
be gging</w>
assign ments</w>
Ya hoo</w>
V anc
Succ ess</w>
S wi
S O
RE E</w>
P C
Le i</w>
H ans</w>
Guang dong</w>
F L</w>
B us</w>
B ad</w>
Ad verti
9 6</w>
18 -
16 th</w>
wr ink
un lucky</w>
tim et
te st
tab let</w>
stri al</w>
st ole</w>
sk el
scholar ships</w>
program med</w>
pre y</w>
p ause</w>
on going</w>
ner ve</w>
n ails</w>
la p</w>
j et</w>
ing ness</w>
in comes</w>
fi es</w>
f old</w>
experim ental</w>
enti ve</w>
du ties</w>
dro me</w>
dr agon</w>
coo ling</w>
controversi al</w>
co ats</w>
ch arming</w>
ce iling</w>
birth days</w>
be gg
attemp ted</w>
aspir in</w>
UNES CO</w>
S co
R et
Qu een
IO N</w>
Gord on</w>
Gl ass</w>
F arm</w>
F air
Ei ffel</w>
E le
Connec tic
Carib bean</w>
Air lines</w>
Af ter
9 3</w>
9 2</w>
6 ,
tor to
ti ring</w>
t i</w>
stre ams</w>
stere o
sh -
s inking</w>
run ner</w>
ri sts</w>
rec alls</w>
re tail</w>
r y
pr inc
loc ks</w>
j in</w>
hot test</w>
flo at</w>
fil es</w>
f red</w>
ed itors</w>
col oni
chur ches</w>
certific ate</w>
ca ves</w>
archit ect</w>
a wa
W ay</w>
Vanc ou
R ich
Prob ably</w>
Mi ami</w>
K ansas</w>
Jo ey</w>
Foo tball</w>
D om
Ch ile</w>
An n
7 ,000</w>
6 :00</w>
1 40</w>
- you</w>
un employed</w>
tor n</w>
ta sty</w>
t ations</w>
sta ke</w>
s ong
requ iring</w>
phi c</w>
pati ently</w>
p ouring</w>
m alls</w>
low ly</w>
lifel ong</w>
life styles</w>
introduc ing</w>
interrup ted</w>
in- law</w>
in i</w>
hun ter</w>
hea ven</w>
gasol ine</w>
gall eries</w>
fol ks</w>
evol ved</w>
evol utionary</w>
ed ure</w>
deser ts</w>
del ic
consist ent</w>
com pos
cha ins</w>
bil li
beauti fully</w>
ari ties</w>
We i</w>
W en</w>
Under ground</w>
Tele phone</w>
Nep al</w>
N ar
Magaz ine</w>
Ju lie</w>
J ake</w>
F our
F alls</w>
D I
D C</w>
Col a</w>
Br ing</w>
Austri a</w>
A ustin</w>
:00 -
14 -year-old</w>
y ne</w>
tr il
tiz ens</w>
tit ude</w>
the astern</w>
th inner</w>
tax is</w>
sun g</w>
sour i</w>
slow ed</w>
sig ning</w>
sh allow</w>
ru pt</w>
r at</w>
r ank</w>
pun c
pul se</w>
pri me</w>
presid ential</w>
ner ves</w>
moder ate</w>
mo squitoes</w>
m ort
ic ed</w>
fac e-to-face</w>
en ables</w>
econom ies</w>
din ners</w>
dela yed</w>
cou gh
coo ler</w>
consci ousness</w>
bl eeding</w>
bar a</w>
ar i</w>
ag u
ad dresses</w>
acti vi
acc umul
T ro
T R
Per son
Par ks</w>
Mis souri</w>
Minn eso
Mand ela</w>
K en</w>
Hum ans</w>
How ard</w>
Ham p
Dis covery</w>
Dem ocr
D ef
D ea
Clar k</w>
Be g
B uck
B ol
B la
B ee
An nie</w>
A re
2 nd</w>
. 00</w>
wild erness</w>
trans fer
suppor tive</w>
sal ty</w>
rescu ed</w>
ph oned</w>
pan el</w>
organ isms</w>
od d</w>
new est</w>
mou ths</w>
mechan ical</w>
m ill</w>
m ask</w>
m ad
lif ting</w>
le ans</w>
j ustice</w>
j eal
in ers</w>
ff ed</w>
es .
em ic</w>
eff ec
divor ced</w>
de struc
com position</w>
classm ate</w>
am bition</w>
alco holi
aff ection</w>
Z hao</w>
Vancou ver</w>
Toyo ta</w>
S low</w>
Protec tion</w>
P ap
M um
K u
Jo b</w>
J unior</w>
H annah</w>
Fol low</w>
Ele ph
Connectic ut</w>
Chur chill</w>
C op
B O
Australi ans</w>
Arm strong</w>
Any way</w>
18 0</w>
y ep</w>
wa ved</w>
teles cope</w>
spokes woman</w>
sea side</w>
se als</w>
regul ation</w>
re dness</w>
program ming</w>
prev ents</w>
preser ved</w>
poo rest</w>
pi geons</w>
one- third</w>
ob tained</w>
ob serving</w>
no -
mon th-
mit ting</w>
m asks</w>
luck ily</w>
independ ently</w>
hydro gen</w>
h en</w>
grad ers</w>
gra b</w>
gossi p</w>
for bidden</w>
flexi bility</w>
fa ils</w>
es sive</w>
develop s</w>
contribu ting</w>
compreh ensive</w>
comm and</w>
ci ent</w>
c er</w>
bu g</w>
astoni shing</w>
ang el</w>
an xi</w>
ab un
Tur ner</w>
The ater</w>
Stan ley</w>
Second ly</w>
S ales</w>
S AT</w>
Q Q</w>
Minneso ta</w>
L and</w>
F A
E ye</w>
Cor por
Confuci us</w>
C la
C are</w>
Belgi um</w>
A ra
: 45</w>
4 :00</w>
3 3
yl an</w>
under graduate</w>
trans formed</w>
stric tly</w>
speciali zed</w>
sel f
sec tor</w>
se wing</w>
s eal</w>
pur su
pre jud
pi pe</w>
particip ation</w>
ow ed</w>
organiz ers</w>
old- fashioned</w>
hus bands</w>
ho sted</w>
h enge</w>
g al</w>
fi ber</w>
ent s'
en vy</w>
de fine</w>
chimpanz ees</w>
cap su
bloc ked</w>
amus ement</w>
al as</w>
Win dows</w>
U pon</w>
Ti bet</w>
Tenn es
Sto ck</w>
Re bec
Plan et</w>
Par ticip
J e
In cre
H ill
Fo x</w>
Ear th
Chi ef</w>
Bo x</w>
Bar bara</w>
Bab y</w>
B ou
An cient</w>
Advent ure</w>
9 1</w>
198 1</w>
y u</w>
vulner able</w>
trans plant</w>
tra iner</w>
sp lit</w>
sli m</w>
settl ement</w>
sail ors</w>
s can</w>
rec ession</w>
proc edure</w>
pres choo
pollut ants</w>
pes tic
pa ins</w>
obst acles</w>
non- profit</w>
mode m</w>
journ alists</w>
initi ally</w>
impres s</w>
hor ror</w>
hes it
fresh man</w>
fit ted</w>
e quality</w>
dis gu
cli ff</w>
beg in
as sets</w>
advent ur
ac counting</w>
Un less</w>
Tal king</w>
T- shirts</w>
Sam uel</w>
Re public
H old</w>
Dou gl
Cho colate</w>
C over</w>
C o</w>
: 0
197 9</w>
196 4</w>
y ness</w>
un limited</w>
th- century</w>
th ma</w>
terri bly</w>
sum mit</w>
st ore
sh iny</w>
sculp tures</w>
rom ance</w>
quanti ty</w>
probl em
pres sing</w>
por ter</w>
p yram
observ ations</w>
l is</w>
investig ate</w>
hurric ane</w>
hon ors</w>
gen u
g al
fol ded</w>
f et
em peror</w>
elev ator</w>
duc k</w>
dre am
dar ies</w>
da wn</w>
cro cod
chr onic</w>
bu si
b ites</w>
at tribu
as signed</w>
appro aches</w>
W ow</w>
W ood
U tah</w>
Tra ining</w>
T eddy</w>
Sen ate</w>
S c
S ay</w>
Rog er</w>
L as</w>
L and
Jes us</w>
Gi ving</w>
Flo rence</w>
Do ing</w>
De pression</w>
D ylan</w>
Car ne
CN N</w>
wher eas</w>
wa ving</w>
un conscious</w>
un certain</w>
thir sty</w>
tend ency</w>
s nee
re ven
quanti ties</w>
pro ves</w>
predat ors</w>
persu aded</w>
par ade</w>
pal m</w>
ou l</w>
o k</w>
man n</w>
m one</w>
fundam ental</w>
flow n</w>
es el
equi valent</w>
en ni
emo tionally</w>
eli a</w>
conf using</w>
comp ens
col onies</w>
cap tured</w>
campaig ns</w>
c us</w>
boun daries</w>
boo ked</w>
bom b</w>
ba i</w>
awk ward</w>
ari ans</w>
appe aling</w>
a partments</w>
Wi -Fi</w>
Rebec ca</w>
P ow
N either</w>
Mad rid</w>
L A</w>
I S</w>
Ho t</w>
F REE</w>
Ca therine</w>
Bec k
A str
200 ,000</w>
15 ,000</w>
13 th</w>
war ns</w>
vir tu
vi v
ur ge</w>
tion ed</w>
spo on</w>
smoo thly</w>
sla ve</w>
si blings</w>
sett lers</w>
sett ings</w>
s .com</w>
replac ing</w>
re venue</w>
proper ties</w>
presid ents</w>
prefer ence</w>
pol l</w>
per mit</w>
main stream</w>
loc ate</w>
le ys</w>
l or
k een</w>
inst alled</w>
individ u
half way</w>
gra ve</w>
ge e</w>
fac ility</w>
explo red</w>
exp ec
emplo y</w>
el ds</w>
ei l</w>
de puty</w>
de pos
cover age</w>
contrac ts</w>
con g
cl oned</w>
chap ter</w>
car di
cal mly</w>
but tons</w>
bu gs</w>
bo re
ban k
ass essment</w>
argu ing</w>
ap parent</w>
ag ents</w>
Veg as</w>
Tou rism</w>
Tennes see</w>
Sa har
S at
R on</w>
R ed
R ab
P ul
Op rah</w>
M as
Hun an</w>
Hi stor
Guar dian</w>
Fre e
Chur ch</w>
Ad di
1 60</w>
00 0
' '
we ed</w>
tel ec
t ted</w>
t ear</w>
sp an</w>
sof tly</w>
ridicul ous</w>
quo ted</w>
poss ess</w>
po sters</w>
par a
olog ically</w>
o id</w>
n es</w>
met eor
li a</w>
l ingu
im polite</w>
i g</w>
heal ing</w>
grand pa</w>
fru stration</w>
flav or</w>
expect ation</w>
end ers</w>
ee se</w>
distr acted</w>
d ur
cra fts</w>
cr ack</w>
coo ks</w>
compla int</w>
clim bers</w>
cap it
b ited</w>
attemp ting</w>
appeti te</w>
ama z
ab or
Wor ds</w>
St one
Sil k</w>
Ph D</w>
New ton</w>
Nav y</w>
In c</w>
Gre g</w>
Go gh</w>
F eng</w>
El ementary</w>
Cap ital</w>
Bir m
A P
8 4</w>
3 50</w>
17 th</w>
' S</w>
work shops</w>
work shop</w>
w rec
w a</w>
vari eties</w>
vacc ine</w>
tur tle</w>
to es</w>
th ouse</w>
success es</w>
st ove</w>
signific ance</w>
sa ke</w>
quali fications</w>
par ag
p ear
oper ator</w>
nor theast</w>
mon ey
mo del
ke- up</w>
k el</w>
indic ated</w>
incid ents</w>
im ming</w>
i ties</w>
hand ful</w>
gr ass
em y</w>
distur bed</w>
distingu ish</w>
defic it</w>
best- selling</w>
ass ment</w>
arrang ement</w>
ap pointed</w>
ai res</w>
acqui red</w>
Wat er
V e
T est</w>
Sho p</w>
S adly</w>
P eter
Gar dens</w>
G ina</w>
G ary</w>
English- speaking</w>
E ff
DA Y</w>
A P</w>
198 2</w>
13 .
y ce</w>
wis ely</w>
will ingness</w>
wa ist</w>
w ounded</w>
surviv ors</w>
slow ing</w>
sk ies</w>
scre amed</w>
rol l
re covering</w>
priv il
po sting</w>
pic k
p ill</w>
nov eli
ni val</w>
mor nings</w>
low ers</w>
lit ter</w>
lea gue</w>
lab els</w>
ini st</w>
hel met</w>
h alls</w>
gener ate</w>
gad gets</w>
ff iti</w>
er o</w>
ent ation</w>
en did</w>
da iry</w>
cy cles</w>
cu is
cerem onies</w>
car d
brigh ter</w>
boo m</w>
auc tion</w>
assign ment</w>
ar chae
W .</w>
T ea</w>
Ma il</w>
M orning</w>
Law rence</w>
Har ris</w>
Gre g
B ed
5 :30</w>
- day</w>
wel coming</w>
wan dering</w>
w ick</w>
w ander</w>
ver b</w>
ta r</w>
superi or</w>
sp ra
so red</w>
sli p</w>
skir t</w>
sing les</w>
serv ant</w>
sched ules</w>
repor tedly</w>
recogni zing</w>
puzz le</w>
protec ts</w>
part nership</w>
ow a</w>
ogra ph
off -
nin e-
n av
institu tion</w>
im ported</w>
identi cal</w>
ici ans</w>
ici a</w>
hum an-
hu i</w>
hor mone</w>
h all
gu essed</w>
effec tiveness</w>
dis advantages</w>
cy clists</w>
cros s
consci ously</w>
bus h</w>
b ay</w>
ati e</w>
ap ology</w>
anc ers</w>
a w</w>
_ _</w>
U l
T ol
Pol and</w>
Per s
O ther
N .
Mal ala</w>
K ey</w>
In clud
H earing</w>
G il
Ex am
D ue</w>
D P</w>
Cont in
Birm ingham</w>
Bir th
A bra
z ard</w>
wor s
wit ness</w>
un a</w>
tol l</w>
ti ans</w>
thou ghtful</w>
surve ys</w>
sur geon</w>
sub mit</w>
ster ies</w>
shel ters</w>
sem ester</w>
sc ra
s quar
pro hi
p ale</w>
out come</w>
k it
jo gging</w>
ir o</w>
inv iting</w>
ink ins</w>
incredi bly</w>
il i</w>
financi ally</w>
explor ers</w>
ep id
ent re
ea ger
discrimin ation</w>
dess ert</w>
cost umes</w>
comb ines</w>
chim ps</w>
br icks</w>
ar di
after- school</w>
accur acy</w>
Tradi tional</w>
Stone henge</w>
Smar t</w>
R ach
O rig
Mur ray</w>
Mar ine</w>
Ma ster</w>
Lo st</w>
Lea ve</w>
I L
G rowing</w>
G E</w>
F u</w>
F ar</w>
D inkins</w>
D ep
Ch ong
An t
Al fred</w>
A ud
A qu
8 00-
8 ,000</w>
18 0
1 30</w>
- related</w>
z ations</w>
war e
wa x</w>
v ar
t anks</w>
survi ving</w>
su es</w>
st eep</w>
speciali sts</w>
sou ven
sou thwest</w>
smo ked</w>
side walk</w>
ru ption</w>
ru ined</w>
replac ement</w>
reas oning</w>
ra ining</w>
publi shers</w>
pois oning</w>
po sit</w>
per -
ow ning</w>
min es</w>
memori ze</w>
liter ally</w>
ligh ted</w>
inter actions</w>
in ev
in ate</w>
ick ey</w>
high ways</w>
gra phy</w>
foot steps</w>
est -
continu ously</w>
conn ects</w>
conf id
comp ul
cl ever
chop sticks</w>
cam el</w>
bi ography</w>
ag ue</w>
accomp lished</w>
Won der
Volunte ers</w>
Pers onal</w>
Out side</w>
Ma yor</w>
K atie</w>
Gu ide</w>
G y
G ab
F C</w>
Dougl as</w>
Bei j
Afgh ani
Abra ham</w>
8 2</w>
4 7
25 ,000</w>
19 20s</w>
up dated</w>
ti les</w>
thum b</w>
tem ples</w>
sw eater</w>
susp ected</w>
stro kes</w>
stri kes</w>
stic king</w>
si on-
self- control</w>
sc ans</w>
r ounds</w>
por k</w>
non profit</w>
lear ner</w>
ko k</w>
iss ance</w>
innov ation</w>
inno cent</w>
inc ere</w>
il y-
human ity</w>
g y-
flu ent</w>
fisher man</w>
favor able</w>
expec tedly</w>
entre prene
enter tain</w>
ent ries</w>
eni x</w>
e tic</w>
depar ture</w>
dem ocr
comfor tably</w>
col der</w>
cha se</w>
bo thered</w>
blin dness</w>
avo id
arrang ements</w>
al pha
adju st
a ero
V an
T hai</w>
Sh or
R ick</w>
P ort
P ay
Liber ty</w>
G ate</w>
F light</w>
Ever est</w>
Environ ment</w>
Egyp tian</w>
Dec .</w>
D anny</w>
Chin at
Carne gie</w>
Bi ble</w>
Al i</w>
// www.
w rest
tro ops</w>
tr unk</w>
tournam ent</w>
the ft</w>
swit ched</w>
subst anti
spaces hip</w>
sil ently</w>
shi on</w>
schoo l-
respect ful</w>
re pairs</w>
prof itable</w>
out put</w>
orig ins</w>
neighb ours</w>
kilomet res</w>
invent ors</w>
i si
host ess</w>
forec ast</w>
f ra
enter pri
dr inkers</w>
dolph in</w>
destruc tive</w>
desi res</w>
dee pest</w>
con gratul
compar ing</w>
c ing</w>
bu ff
bar gain</w>
ani st</w>
accur ately</w>
ac ing</w>
a issance</w>
Z i
Wor k
Wea ther</w>
T ears</w>
Star ting</w>
Rach el</w>
Pre vious</w>
Pr acti
Other wise</w>
N evertheless</w>
N et</w>
Jack ie</w>
Gi ven</w>
G or
For ce</w>
El len</w>
Des ert</w>
Con servation</w>
Con ference</w>
Cam bo
Bo t
Beli eve</w>
Bang kok</w>
An th
Al li
Afghani stan</w>
19 45</w>
y elled</w>
vo ted</w>
thor oughly</w>
spl endid</w>
spid ers</w>
roun ded</w>
resid ential</w>
read ily</w>
purcha sing</w>
per sist
p ine</w>
oper ates</w>
obj ective</w>
o tic</w>
nick name</w>
kis sed</w>
k n
invol vement</w>
in sight</w>
in expensive</w>
in ability</w>
hy brid</w>
hor mon
h -
g a</w>
fit ting</w>
excit edly</w>
ep iso
ea sy
e .</w>
dram as</w>
doub ts</w>
distur bing</w>
di at
defe ated</w>
cou ch</w>
continu ally</w>
contain ers</w>
consul tant</w>
co- workers</w>
cell phones</w>
assum ed</w>
all y-
ail ing</w>
aci ers</w>
Y ellow
Wu han</w>
V inc
V E</w>
S lowly</w>
S end</w>
Run ning</w>
Re port</w>
Lt d</w>
Lar ge</w>
Jew ish</w>
Dri ving</w>
Con test</w>
Brazili an</w>
A D
A B
4 0,000</w>
24- hour</w>
198 3</w>
197 6</w>
1 000</w>
val id</w>
ti re</w>
stor ing</w>
st em
st ab
sk in
sacrif ice</w>
ru in</w>
ran king</w>
r anks</w>
pi pes</w>
on esel
om m
ne sts</w>
n ut</w>
lun ch
lan es</w>
honest ly</w>
he els</w>
gras p</w>
goo dness</w>
go ds</w>
gen cies</w>
ess ly</w>
diam ond</w>
cous ins</w>
compu ting</w>
che er
behavi oral</w>
b in
agre ements</w>
Y i
T ree</w>
Sim ply</w>
Shop ping</w>
R ou
R ain</w>
Qu e
Pl ants</w>
Pi er
Pe king</w>
P aper</w>
Ok la
Mag ic</w>
M ill
M ess
I owa</w>
I N</w>
F ull</w>
Dig ital</w>
Car ol</w>
C ele
Bel ow</w>
B ac
AN D</w>
8 3</w>
5 00,000</w>
11 th</w>
week days</w>
wat ering</w>
u tr
ty- five</w>
twenty- five</w>
trad ers</w>
tab lets</w>
ta sted</w>
t ness</w>
stra i
rul er</w>
room mate</w>
requ ested</w>
ren ted</w>
pro mp
physici an</w>
phy si
ou ri
ot ine</w>
op ia</w>
onesel f</w>
my steries</w>
mis erable</w>
mar ri
lou der</w>
l ity</w>
journ alism</w>
im plic
i at
hope ful</w>
ho p</w>
helpl ess</w>
hear s</w>
h our
es e-
en na</w>
dri ver
distribu tion</w>
dial ogue</w>
develop ers</w>
color1 s</w>
co s
clo set</w>
car ved</w>
bassad or</w>
at t</w>
ar ch</w>
anim ated</w>
ani e</w>
acqu a
Yellow stone</w>
Xi 'an</w>
Web site</w>
We Chat</w>
T un
St or
Smo king</w>
Robo ts</w>
Psych ology</w>
Phili p</w>
O N</w>
N az
Mat thew</w>
K il
K al
Gu o</w>
E .
D anish</w>
Am anda</w>
9 4</w>
9 11</w>
16 -year-old</w>
1 1.
u plo
tran spor
stit utes</w>
reser ved</w>
q i</w>
pup il</w>
pro test</w>
princ ess</w>
pol es</w>
perc eption</w>
p ill
occa sional</w>
nutri tious</w>
ne ts</w>
mu m
mo tori
lun ches</w>
invest ments</w>
infl ation</w>
health care</w>
fu me</w>
f ab
eless ness</w>
ec h</w>
conclu sions</w>
comm ented</w>
comb ining</w>
col li
ci um</w>
ca shi
box ing</w>
bel ts</w>
bas ics</w>
advis es</w>
T IM
St and
Si x
Li on</w>
L et
Jud y</w>
G h
En ter
Di ana</w>
D ra
Chong qing</w>
Cent ury</w>
B ey
An ti
4 th</w>
197 5</w>
197 2</w>
wi ped</w>
v ory</w>
up side</w>
ti redness</w>
ti de</w>
theat res</w>
ten se</w>
ta g</w>
stitu tion</w>
squir rels</w>
seven teen</w>
remin der</w>
recor dings</w>
rec ep
prof ile</w>
predic tions</w>
posi tively</w>
p an</w>
on ships</w>
o live</w>
nutri tional</w>
monit ored</w>
mel t</w>
lean ing</w>
le dge</w>
lap tops</w>
k ill
inter nationally</w>
identi fication</w>
i ang</w>
head lines</w>
h ers</w>
go d</w>
gene tically</w>
g eable</w>
fl ames</w>
es tive</w>
enti a</w>
eigh ty</w>
eco system</w>
ea gle</w>
car riage</w>
bu shes</w>
ballo ons</w>
assist ants</w>
ass ess</w>
announ ce</w>
am ate
Vic tor</w>
U R</w>
Tran sportation</w>
Sw imming</w>
Sto ck
Sol ar</w>
Sher lock</w>
Sep t.</w>
Rec ords</w>
R an
Princ ess</w>
Pla ying</w>
Pl ant</w>
Okla hom
Jer emy</w>
Jam ie</w>
H ome
H ealthy</w>
E thi
Comp anies</w>
Cl ass
8 ,
z oo
witn essed</w>
volcan ic</w>
uck y</w>
tun n
tor n
timet able</w>
terr itory</w>
ta ke
t ents</w>
symbo li
subur bs</w>
spon sored</w>
roof s</w>
refriger ator</w>
rec eption</w>
r anges</w>
que ue</w>
pupp y</w>
portra it</w>
pl u
nineteen th</w>
min ers</w>
met abo
harm less</w>
gh ten</w>
fer ry</w>
evalu ate</w>
et ary</w>
embarr assment</w>
doub le-
dic tionaries</w>
decl ining</w>
cra shes</w>
coun cil</w>
cop ying</w>
col ony</w>
biscu its</w>
au t
an- American</w>
ac ular</w>
Vinc i</w>
Tian jin</w>
Sar a</w>
Res erve</w>
Princ eton</w>
P eng</w>
P L
Oklahom a</w>
Ok ay</w>
N ame</w>
Man ager</w>
K ent
I J
G ame</w>
Friend ship</w>
Fe der
E li
D ong
Comm on</w>
Ch em
C ow
Budd hi
Bea uty</w>
B I</w>
:00 pm</w>
12 th</w>
wr ong
wi shing</w>
weak nesses</w>
wat er-
the irs</w>
su ited</w>
sli des</w>
sk ate
re d-
r inging</w>
puzz les</w>
p ond</w>
op es</w>
ob lig
mort g
lo yal</w>
li shing</w>
li ght-
inv ested</w>
insul a</w>
in ting</w>
i res</w>
h eal</w>
gl aciers</w>
ed it
eco systems</w>
don or</w>
di d
det ec
cy ber
cr yst
coll ects</w>
cand le</w>
bra in
blo gging</w>
ba ked</w>
b bles</w>
autom atic</w>
ation -
as thma</w>
adju sted</w>
accid entally</w>
Y oga</w>
Win d
Wh er
Vo ice</w>
Vi ew</w>
Tele graph</w>
TV s</w>
Res ort</w>
Mar t</w>
Ma c</w>
Lab or</w>
Isra el
Hur ric
H ud
Ex ec
D E
6 4
,00 0-
z y
vo tes</w>
ur o</w>
ul ty</w>
twenti eth</w>
tim ing</w>
ti le</w>
tern al</w>
sig nature</w>
sh ells</w>
serv ants</w>
s land</w>
res ses</w>
qui to</w>
predic ts</w>
polit an</w>
out look</w>
organi zing</w>
oper ators</w>
on t</w>
lef to
kil ometer</w>
im mer
ill -
hop eless</w>
head quarters</w>
hands- on</w>
for um</w>
follow ers</w>
fi shes</w>
fast- food</w>
exam inations</w>
eri al</w>
eng er</w>
el ty</w>
distur b</w>
day light</w>
d ancer</w>
contribu tes</w>
chew ing</w>
chestr a</w>
che ered</w>
ch man</w>
b unch</w>
V I
Tr ump</w>
Sur vey</w>
Sch ol
Resp on
R ho
Lin d
K am
I an</w>
Gar cia</w>
G ro
Fr an
F un</w>
F ru
Exhi bition</w>
Ev ans</w>
Elec tric</w>
E ight</w>
D etro
Cu ba</w>
Chinat own</w>
Ch e
Broad way</w>
Bre ak
Boo k
Ber n
BE IJ
Anth ony</w>
A pol
8 1</w>
3 rd</w>
19 00</w>
15 -year-old</w>
y l</w>
whist le</w>
viv id</w>
v ation</w>
un fortunately</w>
tr a</w>
ten th</w>
re si
re efs</w>
quali fy</w>
pu bs</w>
prefer ences</w>
pean ut</w>
mp h</w>
migr ant</w>
meth ane</w>
ly rics</w>
listen er</w>
li ghtly</w>
hom es
guarante ed</w>
gener osity</w>
form at</w>
farm land</w>
eth nic</w>
enh ance</w>
ener gy-
em ade</w>
econom ist</w>
desi r
dead line</w>
d d</w>
cor ners</w>
clin ic</w>
cho col
chee ks</w>
bar k</w>
ba thing</w>
b end</w>
b are</w>
air planes</w>
adop tion</w>
ad dressed</w>
Web ster</w>
W y
Victori an</w>
S wee
Ric o</w>
P an</w>
Or leans</w>
M ickey</w>
M eet</w>
M au
M S</w>
L loy
IS S</w>
H oo
Fir stly</w>
F ul
English man</w>
Dri ve</w>
Detro it</w>
D ance</w>
Bo dy</w>
Bea uti
Are a</w>
Any thing</w>
A h</w>
3. 5</w>
3 G</w>
195 5</w>
18 00s</w>
13 -
11 :00</w>
work out</w>
wait ers</w>
un aware</w>
tw i
transpor ted</w>
sur faces</w>
stu me</w>
stra w</w>
ste pping</w>
stand ardi
si us</w>
reli eve</w>
poll ute</w>
per fume</w>
orphan age</w>
or a</w>
mom s</w>
left- handed</w>
l acking</w>
jo b
immigr ation</w>
im itate</w>
hum orous</w>
free ze</w>
f ing</w>
drag ged</w>
distinc t</w>
deliver ing</w>
de posit</w>
d ale</w>
circ us</w>
c entered</w>
bo sses</w>
be ats</w>
bab y
at tered</w>
as so</w>
ar ed</w>
any time</w>
and ong</w>
an ticip
ab str
Z e
W ho
Shor tly</w>
Rob erts</w>
Revi ew</w>
Queen sland</w>
P in
P il
P av
Moz art</w>
Mom my</w>
M S
L ess</w>
K ir
Indu strial</w>
H it
D am
C ath
7 ,
6 :30</w>
16 -
worth while</w>
volun tary</w>
veget arian</w>
un expectedly</w>
ten -
t es
sp eeding</w>
s incere</w>
s al</w>
resid ence</w>
rel uc
r ati
pro ving</w>
predic table</w>
popul ated</w>
po se
ow ls</w>
origin ated</w>
ori zed</w>
oni o</w>
on ia</w>
o y
mon t</w>
me tic</w>
lim itations</w>
j us
it z</w>
ici ency</w>
hard- working</w>
gy mn
gir aff
gener ated</w>
garden er</w>
ex clu
es a</w>
cuis ine</w>
classi fied</w>
char ities</w>
ch ef</w>
calcul ated</w>
bul bs</w>
black board</w>
bas ement</w>
b ins</w>
astoni shed</w>
ar d
ac u
a x</w>
Wal ker</w>
T anz
Sou theast</w>
S earch</w>
Pu erto</w>
Psych ologists</w>
Pri mary</w>
Pho enix</w>
P et
Lloy d</w>
Li st
L on
Kit ty</w>
K eeping</w>
H our</w>
Fin anci
Dis ease</w>
D an
Cour se</w>
Corpor ation</w>
Clear ly</w>
C I
Ber kel
Al l
9 ,000</w>
2 -year-old</w>
19 30</w>
- a</w>
world- famous</w>
wee ds</w>
wal kers</w>
w il
transfer red</w>
trac ked</w>
tom b</w>
tar get
sion ate</w>
ro pes</w>
restric ted</w>
repres enting</w>
recei ver</w>
real- life</w>
re produce</w>
rail road</w>
pr ay</w>
port able</w>
ow ing</w>
onom ous</w>
motiv ate</w>
moo ds</w>
liter acy</w>
li p</w>
l iness</w>
inf ra
in form
il a</w>
hor n</w>
fo ster</w>
fear ful</w>
exam ining</w>
essi e</w>
ec ological</w>
disapp ear
dis comfort</w>
d ancers</w>
cre ator</w>
comm it</w>
char ts</w>
cal cium</w>
br on
be gged</w>
b lows</w>
aff air</w>
adverti sed</w>
absol ute</w>
a king</w>
a e</w>
Yun nan</w>
U V</w>
Tr ans
T rain</w>
T am
Sou th
S om
Ret ur
R ad
Pro vid
Pr ices</w>
On tari
N ino</w>
N ev
Mo ore</w>
Ma ine</w>
Ma in</w>
L eg
J ose</w>
Hem ing
Gi b
Em peror</w>
DV D</w>
D own</w>
D eep</w>
D e</w>
Cur ren
Com pl
Coll ins</w>
Br un
Beck ham</w>
B ren
6 6
whit e-
volunte ered</w>
um n</w>
top -
st un
st are</w>
simil arities</w>
si ghted</w>
scre am</w>
sa u
resist ant</w>
re ve
question n
pop corn</w>
par rot</w>
ox id
noveli st</w>
mic ro</w>
mi xing</w>
loc ally</w>
lem en</w>
la m</w>
kin dly</w>
inv ites</w>
hun ted</w>
har bor</w>
h ook</w>
gra pes</w>
fl ame</w>
fire fighters</w>
expl orer</w>
expe dition</w>
driver less</w>
devo tion</w>
cru cial</w>
cop ied</w>
contin ents</w>
con tests</w>
choo ses</w>
break through</w>
bear ing</w>
b all
ali a</w>
al i</w>
agg age</w>
ad missions</w>
Zh eng</w>
War ren</w>
St atistics</w>
Sh ir
Sh andong</w>
Sel f-
Scienti fic</w>
Roc ky</w>
R ud
Pre mier</w>
Philli ps</w>
Pear l</w>
P ad
P E</w>
Ontari o</w>
Ka thy</w>
J .
Heming way</w>
Green land</w>
G B</w>
Dic tionary</w>
Com mer
Cl aus</w>
Cana dians</w>
C li
C lean</w>
C R
Bro thers</w>
Be th</w>
7 5
197 1</w>
196 2</w>
194 0s</w>
19 50</w>
writ ings</w>
wea pon</w>
ves sels</w>
ver bs</w>
us able</w>
tunn els</w>
tran sition</w>
t ze</w>
suff er
sub si
sto l</w>
shor test</w>
self- driving</w>
sec urities</w>
s ni
roo ted</w>
resear ching</w>
re vi
pe trol</w>
nin th</w>
ne utr
navig ation</w>
mir rors</w>
min i</w>
mat ched</w>
marri ages</w>
main taining</w>
ma id</w>
m its</w>
loy alty</w>
k en
im a</w>
high lights</w>
g ates</w>
f ats</w>
eng agement</w>
en sus</w>
e uro
e tion</w>
doub tedly</w>
delic ate</w>
cul tiv
cont acted</w>
consequ ence</w>
conduc tor</w>
con test
collap se</w>
co- founder</w>
co des</w>
clear er</w>
cl one</w>
chee k</w>
che ering</w>
card board</w>
c key</w>
bar bec
back wards</w>
app lies</w>
an thro
ali ens</w>
Y eah</w>
Woo l
Wa yne</w>
T on
Sa int</w>
Sa id</w>
S itting</w>
Ru n</w>
Qu i
Practi ce</w>
Per u</w>
Nichol as</w>
L e</w>
Kent ucky</w>
Jiang su</w>
Inter est
Hurric ane</w>
Engine ering</w>
En d</w>
Educ ational</w>
D own
D on</w>
Con n
Con cer
Co sta</w>
Cl in
Bo y</w>
Berkel ey</w>
13 -year-old</w>
war t</w>
torto ise</w>
terri fied</w>
surpri ses</w>
sp y</w>
resol ution</w>
reserv ations</w>
res orts</w>
rel ay</w>
pret ending</w>
point ments</w>
ph er
p ea
p .m.
out comes</w>
nic otine</w>
need le</w>
ne tizens</w>
n augh
met als</w>
mat ching</w>
ket ing</w>
inc idence</w>
gi an</w>
ght ened</w>
foot -
fat ty</w>
exc uses</w>
en abled</w>
eleg ant</w>
ei ght-
dum pl
don key</w>
doc tor
dish on
dem entia</w>
cu red</w>
cab in</w>
bru shes</w>
bo ating</w>
bar n</w>
bac helor</w>
b ans</w>
app li
allow ance</w>
all as</w>
al b
adventur ous</w>
Zh u</w>
T each</w>
Surpri singly</w>
Shen zhou</w>
Se oul</w>
Rea der</w>
Pit ts
Pic asso</w>
Pa ul
P R</w>
Mon go
Mar co</w>
M etro
K el
Jo an</w>
J ing</w>
IO C</w>
I C</w>
Fit z
Exec utive</w>
Col in</w>
Chall enge</w>
Ca fe</w>
Blo om
Beauti ful</w>
Aut umn</w>
Ama z
A k
A R</w>
4 6
w eal
un covered</w>
them ed</w>
tem per</w>
t to</w>
sun glasses</w>
so y
second- hand</w>
s an
rol ls</w>
roc ky</w>
repa ired</w>
pl in</w>
over head</w>
ou red</w>
og y</w>
new born</w>
mini stry</w>
m in</w>
lo s</w>
l aser</w>
kno cking</w>
jum ps</w>
jud ging</w>
it er</w>
ignor ing</w>
harmon y</w>
hand shake</w>
hand led</w>
g ang</w>
fre e-
for gi
ex changes</w>
ev ed</w>
econom ists</w>
e on</w>
desir able</w>
d anced</w>
cri es</w>
bor ders</w>
analy zing</w>
ag i
advis er</w>
W ind</w>
Volunte er</w>
Ven us</w>
S oc
No te</w>
Mor ris</w>
M ouse</w>
Lab or
K han</w>
Interest ingly</w>
I sa
Ho pe
Grad u
Gl as
F ort</w>
F DA</w>
De sign</w>
D ay
Cre ek</w>
Co ke</w>
Cl asses</w>
Ch icken</w>
Birth day</w>
Beat les</w>
Ac tivities</w>
AR S</w>
A si
A S</w>
A M
3 -year-old</w>
196 9</w>
19 40</w>
17 -year-old</w>
wh ites</w>
vo red</w>
un happiness</w>
un certainty</w>
tri bes</w>
tim ately</w>
t ting</w>
st ering</w>
spect acular</w>
sou theast</w>
slee p
simpl er</w>
shi pped</w>
se d
recomm ends</w>
re store</w>
poss ession</w>
pain ts</w>
pa ste</w>
mo on
mathematic al</w>
mag nific
m id</w>
lam b</w>
judg ments</w>
int ensive</w>
in ely</w>
ho sting</w>
g ear</w>
flash light</w>
est y</w>
el ders</w>
e ks</w>
dem anded</w>
curren ts</w>
cr it
concentr ated</w>
comp as
class ics</w>
cau tious</w>
bit ter
belong ing</w>
as cular</w>
ali en</w>
ag o
W ood</w>
Tom orrow</w>
Secre t</w>
Ren aissance</w>
R al
Q ian</w>
Particip ants</w>
Par ker</w>
N 1</w>
Me i</w>
Hope fully</w>
F an</w>
Dru g</w>
Dol ph
Curren tly</w>
Be hind</w>
Associ ated</w>
Al ab
Ad ams</w>
A m</w>
A id</w>
19 .
1 25</w>
zz y</w>
y g
wra p</w>
v ine</w>
ur t</w>
ul ation</w>
to ast</w>
th in
tem por
sm en</w>
slee ps</w>
ski p</w>
show ers</w>
short ened</w>
satis factory</w>
rej ection</w>
recre ation</w>
predic tion</w>
practic ally</w>
plea sures</w>
pil es</w>
p ts</w>
p ong</w>
p it
or ism</w>
on ically</w>
maj ors</w>
lea p</w>
kin son</w>
k it</w>
j ian</w>
j ail</w>
invest ing</w>
innov ative</w>
in ted</w>
histor ians</w>
gu ilt</w>
great -
func tional</w>
favor ites</w>
expect ancy</w>
emer gencies</w>
elec tro
e- book</w>
dis advantage</w>
determin es</w>
decor ate</w>
deb ts</w>
conv ey</w>
colum n</w>
char m</w>
brief ly</w>
bri ghtly</w>
bir d
beha ved</w>
b and
alcoholi c</w>
ab sent</w>
W inst
Ty pe</w>
Sta dium</w>
Sh en</w>
S eries</w>
S av
Rob in</w>
Re ally</w>
P ati
P ack
P R
Nig eria</w>
Mon tre
M en
J azz</w>
Gu ests</w>
F ast</w>
Ex cell
Coc a-
Car son</w>
Brit ons</w>
Bi o
Bal ti
9 9
25 -
197 7</w>
196 3</w>
14 th</w>
. org
ut ting</w>
un important</w>
tut or</w>
tril lion</w>
tra ils</w>
toler ance</w>
ta sting</w>
sub mitted</w>
stret ched</w>
stom ach
school bag</w>
reve als</w>
repe ti
ren ting</w>
re build</w>
pun ish</w>
provid er</w>
pro to
physici st</w>
p ec
ori ented</w>
or i</w>
op position</w>
ni es</w>
modi fied</w>
man ages</w>
mag nit
ma ke
l on</w>
j o</w>
inf ant</w>
in stitute</w>
imp acts</w>
hurric anes</w>
hormon es</w>
hor ns</w>
hom emade</w>
hol m</w>
hi p
hei ghts</w>
gi vers</w>
foun ding</w>
fil ed</w>
experim enting</w>
ex ternal</w>
ed iting</w>
deli ber
cour ts</w>
cook ie</w>
co stume</w>
che ated</w>
champi onship</w>
cha sing</w>
cast les</w>
capsu le</w>
camp ers</w>
bul b</w>
bor ough</w>
bl ank</w>
ari se</w>
al ay
ag ging</w>
acknowled ged</w>
accomplish ments</w>
a sive</w>
Z ach</w>
Tra ffic</w>
T een</w>
T C
Swi ft</w>
Sch ul
S ound</w>
Par liament</w>
L es
I B
Har bor</w>
Ge ographic</w>
Exper im
D ead</w>
Cro s
Ci ties</w>
Car ter</w>
C old</w>
BEIJ ING</w>
197 3</w>
194 8</w>
win ters</w>
wat ch
w ounds</w>
v ap
trou bl
thank -you</w>
swee ping</w>
st al
sla very</w>
sh ines</w>
seven -
see ks</w>
s andy</w>
ri der</w>
ri a</w>
por ting</w>
om on</w>
naugh ty</w>
mos quito</w>
mo bil
mean while</w>
ko ala</w>
in land</w>
il -
identi fying</w>
hope fully</w>
h ec
gr an
g aming</w>
func tioning</w>
fre y</w>
forc ement</w>
for getting</w>
fini shes</w>
ey e-
ev acu
es '
e- books</w>
dr ums</w>
distingu i
d addy</w>
critici ze</w>
cont acts</w>
conclud e</w>
competi tor</w>
collap sed</w>
check out</w>
cashi er</w>
car eless</w>
can al</w>
c e-
c ages</w>
build ers</w>
book stores</w>
at ar</w>
as k
ag ged</w>
ad or</w>
ac ier</w>
Xi ao
W ide</w>
Vi enna</w>
Su rely</w>
P lu
Nor we
New sp
N Y
K now</w>
Jan et</w>
Itali ans</w>
IN G
H im
Green wich</w>
Fa shion</w>
Corn ell</w>
Coo per</w>
Communic ation</w>
Buck ingham</w>
Balti more</w>
B ay
Auth or</w>
Advent ures</w>
7 7
2, 500</w>
197 4</w>
1, 200</w>
- in</w>
wild ly</w>
weigh ing</w>
wed dings</w>
ware house</w>
wan dered</w>
wa its</w>
vac u
up coming</w>
trem end
tra its</w>
susp ended</w>
sun rise</w>
sh orts</w>
sea food</w>
represent atives</w>
rac ed</w>
pur suit</w>
pul ls</w>
pow er
pedestri ans</w>
pa thy</w>
ox es</w>
out- of-
optim ism</w>
n on</w>
mista ken</w>
micro -
med itation</w>
mar king</w>
m al</w>
long- distance</w>
lim iting</w>
l i</w>
jus ti
initi ative</w>
inf o</w>
high- quality</w>
grocer ies</w>
fertiliz er</w>
ex port</w>
evi sions</w>
estab lish
em a</w>
ec li
eager ly</w>
deser ted</w>
cop y
convinc ing</w>
conduc ting</w>
compreh ension</w>
co .uk</w>
bloc king</w>
bl essed</w>
best- known</w>
bec k</w>
as sured</w>
ar c</w>
adoles cents</w>
adoles cence</w>
Ven e
T ab
Pre vention</w>
P oo
P ick</w>
N in
N ile</w>
N eil</w>
Montre al</w>
Maj or</w>
M t</w>
M ol
M ea
Hol land</w>
H ad</w>
Financi al</w>
Dr ink</w>
Den ver</w>
Cele br
Au sten</w>
Ang el</w>
A z
4. 5</w>
10 th</w>
10 :30</w>
wh o
tor ch</w>
ti al</w>
terr orism</w>
sw ing</w>
spher ic</w>
sp reads</w>
shi fts</w>
ri val</w>
revol utionary</w>
relea ses</w>
public ly</w>
po ster</w>
po ets</w>
particip ated</w>
p essi
om a</w>
observ ers</w>
mush rooms</w>
m ation</w>
m are</w>
le op
inten ance</w>
im port</w>
gra ffiti</w>
glob ally</w>
gall ons</w>
g lim
g li
en rich
en counter</w>
diagno sis</w>
den sity</w>
cred its</w>
concer ning</w>
compani ons</w>
clo ses</w>
cli ent</w>
bu yer</w>
bre ed</w>
bore dom</w>
bo iling</w>
bl acks</w>
bi king</w>
bar king</w>
apologi zed</w>
am p
Yang tze</w>
Wor d</w>
Wal -
W ars</w>
T wel
Str ong</w>
Sh e
R ide</w>
R ee
Pic ture</w>
Phys ical</w>
Mc Car
Ma dison</w>
L ate</w>
Jo y</w>
Fe eling</w>
F .</w>
B rain</w>
196 1</w>
14 .
z ers</w>
wa stes</w>
um -
top ped</w>
teen -year-old</w>
t ouring</w>
sp ray</w>
sin cerely</w>
sev enty</w>
sen sible</w>
scan ning</w>
s ory</w>
s cent</w>
rum ors</w>
qu et</w>
pra yed</w>
por ch</w>
plat forms</w>
pengu in</w>
occup ation</w>
ne ath</w>
molec ules</w>
mo de</w>
mar g
m and
legisl ation</w>
le gi
inter n
infra structure</w>
impres sions</w>
ick ly</w>
hum our</w>
grand daughter</w>
govern or</w>
gi ver</w>
f east</w>
exc essive</w>
er man</w>
ear ns</w>
e ti
dam ages</w>
cott age</w>
cooper ate</w>
collec tors</w>
clim ates</w>
cat al
bl ess</w>
bil ingual</w>
Wester ners</w>
Wat ching</w>
Stock holm</w>
S mi
Ra in
Pre sid
Pitts burgh</w>
P hi
Ol der</w>
Nor man</w>
N ur
N apol
Mem orial</w>
Im medi
H av
H as</w>
H .</w>
Fur ther</w>
For bes</w>
Fe b
F ace</w>
Ev ening</w>
Des cription</w>
Democr atic</w>
D inner</w>
D ates</w>
Chin ese-
C ats</w>
C ab
But ter
Bri stol</w>
B ad
Arab ic</w>
Ara b</w>
Ant onio</w>
195 2</w>
12 -year-old</w>
y u
wor m</w>
we i</w>
up date</w>
un fortunate</w>
transm it
sy stem
swim mer</w>
sw allowed</w>
super star</w>
sum mers</w>
stret ching</w>
spo iled</w>
so li
sk ate</w>
simpl est</w>
si es</w>
sh yness</w>
ri b
respon ding</w>
re ver
re stored</w>
rain forests</w>
r ud
pri est</w>
post ure</w>
peri al</w>
pass words</w>
ov ascular</w>
oper as</w>
o ids</w>
n ish</w>
mu tual</w>
mob ility</w>
laugh s</w>
l ately</w>
inf ants</w>
har sh</w>
ga ther
forgi veness</w>
foot print</w>
fi x
fascin ated</w>
excell ence</w>
ev al</w>
eli gi
el -
dra ft</w>
di ves</w>
dar ker</w>
d are</w>
comp ounds</w>
com er</w>
chec k-
cat ches</w>
caf et
bra kes</w>
avail ability</w>
at om
ar -
ac company</w>
Th inking</w>
Tanz ania</w>
TIM E</w>
St anding</w>
Sha w</w>
Rec y
Prof essi
Pla y
Mem bers</w>
Gr ay</w>
F eli
Cri tics</w>
Coca- Cola</w>
C a</w>
Break fast</w>
Br yan</w>
B yr
An dro
Alab ama</w>
Ac ross</w>
A ar
8 th</w>
6 0,000</w>
4 4
196 5</w>
17 0</w>
10 1</w>
. and</w>
,00 0,000</w>
you ths</w>
y i</w>
v aries</w>
ut ter</w>
tur b
trag ic</w>
tou ches</w>
th rows</w>
suppl ements</w>
sub j
straw berries</w>
some time</w>
separ ation</w>
separ ately</w>
sc rap
sail or</w>
sa y
remin ding</w>
recogni zes</w>
reas on
reali zes</w>
re fre
qu ilt</w>
pronoun ced</w>
pri or</w>
pollu ting</w>
pol y
physici ans</w>
open ly</w>
op her</w>
necess ity</w>
mu st-
mini -
micro bes</w>
mach in
lic en
li van</w>
inter viewer</w>
im patient</w>
hi ps</w>
hear t-
ha irs</w>
h l</w>
grown- up</w>
gho st</w>
fam ily-
enc y
en rolled</w>
dri ve
disappear ance</w>
determin ing</w>
desper ately</w>
consist ently</w>
claim ing</w>
cl ue</w>
chea pest</w>
char t</w>
broad er</w>
breath taking</w>
br is</w>
au tism</w>
as sic</w>
ar ing</w>
adverti se</w>
Y ellow</w>
Tw enty-
To by</w>
Sul livan</w>
St ress</w>
S ony</w>
S car
S TE
Res ources</w>
R ice</w>
Pr of</w>
N .</w>
Incre as
Harri son</w>
Ha y
H ills</w>
H 1
G DP</w>
Cra ig</w>
Cap it
Cambo dia</w>
C lose</w>
C ao</w>
Brad ley</w>
A dri
5 0-
195 9</w>
0 8
z able</w>
vir al</w>
vic e-
up ward</w>
uni vers
tru st
toler ate</w>
ten der</w>
t eller</w>
standardi zed</w>
sor row</w>
sk ins</w>
situ ated</w>
ro gen</w>
relea sing</w>
re ef</w>
re acted</w>
rad ar</w>
r .</w>
punc tu
pl e-
ph arm
o ks</w>
mis understanding</w>
manufac turer</w>
magnit ude</w>
lean ed</w>
h ut
h l
go s</w>
g les</w>
fi xing</w>
ex changed</w>
dig nity</w>
deser ves</w>
des c
cow boy</w>
consider ably</w>
conserv ative</w>
concentr ating</w>
compos er</w>
commerci als</w>
circul ation</w>
chem ist</w>
ber y</w>
auth enti
att acking</w>
atic s</w>
ap y</w>
abstr act</w>
Winst on</w>
Win frey</w>
W all
Tri p</w>
Treas ury</w>
TO E
T A</w>
Ste wart</w>
S T</w>
Rail way</w>
Q ing</w>
Pol y
Pier re</w>
Over all</w>
O F</w>
Norm al</w>
M ust</w>
Hud son</w>
Egyp tians</w>
Cur rent</w>
Compu ters</w>
Can al</w>
Bi ke</w>
Bey ond</w>
Bar ry</w>
B ar</w>
At t
Ar ch
AN G
A bo
12 ,000</w>
- it</w>
year old</w>
woo l</w>
wid th</w>
ver ts</w>
val leys</w>
un usually</w>
un friendly</w>
tr ace</w>
ther -
teles cop
sol o</w>
s burg</w>
reserv ation</w>
pursu ing</w>
pu rely</w>
pu r</w>
pres enting</w>
pre mi
pol is</w>
pestic ides</w>
pen sion</w>
p aced</w>
nee ding</w>
micro wave</w>
micro scope</w>
mechan ism</w>
main tained</w>
ma intenance</w>
li via</w>
l ining</w>
k ingdom</w>
ir rig
im ports</w>
hor se
hes itation</w>
g us</w>
fru str
ff y</w>
ev ident</w>
ess entially</w>
es el</w>
en roll
emi sphere</w>
dumpl ings</w>
doub tful</w>
den y</w>
d g
consid ers</w>
condition ed</w>
com et</w>
co- author</w>
cl earing</w>
chocol ates</w>
child -
character istic</w>
bul let</w>
buil t-
broadca sting</w>
blan kets</w>
b ou
b els</w>
an ony
al titude</w>
advertis ers</w>
acc ess
academ y</w>
aband on</w>
ab ling</w>
X u
Wor kers</w>
Ta ob
Sp end</w>
Sh are</w>
S aw
Rab bit</w>
Produc t</w>
Pap a</w>
Off ic
Nu tri
Napol eon</w>
N ine</w>
M on</w>
M itch
M illi
Lou isi
Le go</w>
L unch</w>
L en
Indu stry</w>
I ni
E D</w>
D ean</w>
Cu ri
C S
Apol lo</w>
Angel a</w>
5 7
193 9</w>
11 :30</w>
wear er</w>
wa kes</w>
un safe</w>
um in
u li
tw o
tr aded</w>
th read</w>
stret ches</w>
stat e-
selfi es</w>
sear ches</w>
scre en
s i</w>
refl ecting</w>
rec order</w>
re viewed</w>
ra m</w>
question ing</w>
pro sec
pl ing</w>
pi anist</w>
person alized</w>
pass ages</w>
p eas
or ation</w>
om ed</w>
og ni
neighb our</w>
n ail</w>
metabo li
low er-
kid n
inten sity</w>
in ary</w>
im it
i vory</w>
ho tter</w>
h an
grown- ups</w>
genu ine</w>
fl our</w>
fil med</w>
f an
explo res</w>
er pill
ec tious</w>
duc tion</w>
dism is
di al</w>
decreas ing</w>
decor ations</w>
cot t</w>
compl etion</w>
compe ted</w>
ch ew</w>
bow s</w>
bio diversity</w>
belong ings</w>
bal con
aller gies</w>
adap tation</w>
acqua int
ac count
Y i</w>
Wal- Mart</w>
W ear</w>
St ories</w>
S ign</w>
Rus sell</w>
Re sid
Re qui
Portu gal</w>
N ick
Mar athon</w>
Louisi ana</w>
L ang
Ji ang</w>
Jan .</w>
Ham il
H ong
H ind
Gre eks</w>
G at
G O
Feder ation</w>
F oc
E igh
Del hi</w>
D ing</w>
Con serv
Col om
Cha irman</w>
C air
Av ail
As sist
197 8</w>
16 .
1. 4</w>
vi sions</w>
ud i</w>
u pri
u l</w>
twenti es</w>
tit led</w>
tal ity</w>
sub urban</w>
sub stitute</w>
st rain</w>
sp an
skel eton</w>
sit ter</w>
sim p
shop per</w>
sc are</w>
safe st</w>
sa id
reci pi
re bel
qu ette</w>
problem -
preci se</w>
polit eness</w>
p ies</w>
p ad
oo th</w>
nor thwest</w>
no d</w>
night mare</w>
n ered</w>
motor cycle</w>
mon itors</w>
micro phone</w>
merch ant</w>
medic ation</w>
law makers</w>
land marks</w>
l as</w>
kangar oo</w>
k icking</w>
instruc tors</w>
in n</w>
ice- cream</w>
hu h</w>
hesit ated</w>
hand ic
ha ired</w>
g by</w>
ency clo
distr action</w>
den ied</w>
d ant</w>
d ams</w>
counter parts</w>
construc t</w>
com ers</w>
coast line</w>
car pet</w>
ca b</w>
busi est</w>
bu bble</w>
bor ne</w>
blo ggers</w>
bit ten</w>
begg ar</w>
bas sy</w>
back ward</w>
and om
amate ur</w>
alpha bet</w>
Wh e
V O
T ina</w>
Shir ley</w>
S .
Rea ders</w>
Pro c
P et</w>
P age</w>
N O</w>
M ind</w>
M ama</w>
Lt d.</w>
Li z</w>
Li ang</w>
High way</w>
G R
Ethi opia</w>
El vis</w>
De tails</w>
5 8
3 00,000</w>
20 30</w>
17 .
1. 2</w>
wea ken</w>
water falls</w>
w as
v re</w>
ur ging</w>
un sure</w>
u i</w>
tremend ous</w>
telescop es</w>
tel evisions</w>
syn drome</w>
sm elling</w>
sh ri
sa uc
s worth</w>
resp ectively</w>
rescu ers</w>
rati o</w>
rain water</w>
post cards</w>
pers ever
par aly
pa st
p itch</w>
ori a</w>
ment -
men us</w>
ma ke-up</w>
m on</w>
li fts</w>
le i
landscap es</w>
k ing
ici pal</w>
ho sti
hec tar
harm ed</w>
hard ware</w>
hand bag</w>
foreig ner</w>
eless ly</w>
el berg</w>
e u
disapp ears</w>
dep ended</w>
deal ers</w>
day- to-
con vic
comfor ting</w>
ch or
cardi ovascular</w>
cap s</w>
canc elled</w>
bron ze</w>
bra very</w>
bow ls</w>
astronom ers</w>
al istic</w>
ag a</w>
after ward</w>
admir ation</w>
acti v
W earing</w>
W W
Uni versal</w>
Tur k
Tre es</w>
TC M</w>
T ao</w>
T F
Sophi e</w>
Sal t</w>
S it</w>
Ron ald</w>
Re ed</w>
R ita</w>
R ich</w>
R ace</w>
Pri vate</w>
Pl at
Per f
Par t
P ew</w>
N ear</w>
M E
List ening</w>
K im
J o</w>
Inv est
In tellig
In divid
Hill ary</w>
Ha iti</w>
H1 N1</w>
Free dom</w>
Franc is</w>
F em
De b
D ro
D -
Communic ations</w>
Christi e</w>
C lev
Ber ry</w>
Ash ley</w>
An sw
AT ION</w>
A A</w>
9 th</w>
4 :30</w>
4 0-
196 8</w>
who ever</w>
vent ure</w>
up dates</w>
under neath</w>
un easy</w>
th under
tele phones</w>
team mates</w>
t an</w>
supp lied</w>
su gar
stri p</w>
strang ely</w>
sk ep
sev enty-
re t
re gain</w>
que z</w>
publ icity</w>
psych iat
prote ins</w>
pra yer</w>
perc ei
oun ce</w>
no ble</w>
month- old</w>
mean time</w>
magnific ent</w>
le um</w>
it zer</w>
industri alized</w>
iP ads</w>
hu gs</w>
ha ble</w>
go w</w>
gar lic</w>
fat al</w>
fai thful</w>
f t
f ill
er ity</w>
dra g</w>
dow ns</w>
dor mit
der i
crit eria</w>
compu ter
co aster</w>
celebr ates</w>
bo oming</w>
be y</w>
back packs</w>
ar ou
ar o</w>
ap pre
anim ation</w>
ambi tions</w>
altern atives</w>
adv anc
Vin cent</w>
U sers</w>
Super man</w>
S of
S ina</w>
Q U
PE C</w>
P at</w>
Or ange</w>
O il</w>
Lev el</w>
L .
J ustice</w>
I CE
For bidden</w>
Emplo y
Dis cover</w>
Cel sius</w>
Car s</w>
C s</w>
Bas ketball</w>
Ac tion</w>
A vi
A ga
A g
196 6</w>
y a
vi c</w>
ti des</w>
the dr
th century</w>
terrori st</w>
te d
t als</w>
sw allow</w>
struc tured</w>
sp rings</w>
sh ru
sens or</w>
s ophi
sophi stic
roc kets</w>
rib bon</w>
regre ts</w>
prosp erity</w>
prosp ects</w>
priv ately</w>
pres ti
philos opher</w>
pear l</w>
pe tro
pa ired</w>
ob iles</w>
o zone</w>
notic eable</w>
mor tality</w>
mer ly</w>
liber al</w>
li m</w>
la g</w>
k ung</w>
joy ful</w>
ir a</w>
invest or</w>
inter f
in os</w>
in habit
im pl
ick er</w>
hard ship</w>
hand y</w>
fos s
foo d-
fee ds</w>
far -
f oxes</w>
ex pose</w>
ex ports</w>
episo de</w>
epid emic</w>
eng aging</w>
ed a</w>
duc ks</w>
dec k</w>
day-to- day</w>
d ental</w>
corpor ations</w>
co ck</w>
bi as</w>
ax y</w>
att ach</w>
appli ances</w>
ang les</w>
anc tu
am bassador</w>
acqui sition</w>
a z</w>
YO U</w>
Volunte ering</w>
V ide
Under standing</w>
Travel ing</w>
Tradi tionally</w>
TE R</w>
Sch war
Phi l</w>
Pal est
Olym pi
N ice</w>
N atur
Movi e</w>
Mitch ell</w>
L ank
K un
J ing
Hop kins</w>
Holi days</w>
Him alay
E u
E ast
D et
Christ ine</w>
Ch eng</w>
C L
Andro id</w>
Al ready</w>
Adv anced</w>
Academ ic</w>
7 th</w>
2 20</w>
15 0
14 -
11 -
- 1</w>
y elling</w>
war mly</w>
vi sibility</w>
vacu um</w>
uti n</w>
un reasonable</w>
ty pe
tr ay</w>
t att
supervis or</w>
shar e
sens ation</w>
regul ate</w>
recommend ations</w>
radi o
pret ended</w>
pl un
photograph ers</w>
photograph ed</w>
pas sionate</w>
par ach
p ud
oun d-
ough s</w>
organiz er</w>
n aming</w>
mel ted</w>
mat urity</w>
man ual</w>
laun ching</w>
lan terns</w>
lam ps</w>
lab eled</w>
la va</w>
la h</w>
l ens</w>
inter personal</w>
in put</w>
hectar es</w>
green er</w>
go ers</w>
gam bling</w>
fair y
fa ults</w>
ex trac
euro s</w>
ess ness</w>
erv ation</w>
enter tained</w>
enter tain
en rich</w>
ed ges</w>
dr ying</w>
dom inated</w>
do ts</w>
din ers</w>
diet ing</w>
di vers</w>
deci sion-
counsel or</w>
confid ently</w>
confer ences</w>
comm ands</w>
coll ective</w>
bul l</w>
attend ance</w>
architec tural</w>
appre n
appear ances</w>
ag eing</w>
Z one</w>
Wal ter</w>
W anted</w>
Ur ban</w>
Ti bet
Sp id
Sil ver</w>
S ri</w>
Ru th</w>
Res cue</w>
Pl astic</w>
Pav ili
P .</w>
O y
Norm ally</w>
No ah</w>
Mid west</w>
L aughter</w>
Ke ith</w>
Jes se</w>
In tro
I P</w>
Hea ven</w>
Hamil ton</w>
H og
Gri ff
Glas gow</w>
Gil bert</w>
F ine</w>
Ed gar</w>
E y
DV Ds</w>
D enn
Coo l</w>
Cha plin</w>
Ch ild
C BS</w>
C A</w>
Ap p</w>
Ad vis
Abo ve</w>
A F
7. 5</w>
7 0s</w>
3 :00</w>
195 4</w>
16 0
15 .
wet lands</w>
voc al</w>
ver tical</w>
v able</w>
ul tra
ul ate</w>
tum or</w>
trans action</w>
toil ets</w>
tic k</w>
threat en</w>
t ty</w>
t ones</w>
t ney</w>
stres ses</w>
slow s</w>
short ages</w>
shoc ks</w>
see kers</w>
school children</w>
ri pe</w>
renew ed</w>
ref using</w>
re use</w>
quo te</w>
present ations</w>
plea sing</w>
person nel</w>
perman ently</w>
per mits</w>
off s</w>
o a</w>
notic ing</w>
no ti
mi tive</w>
ma stered</w>
m our
lo gy</w>
lit ers</w>
lec turer</w>
jo ked</w>
inspec tion</w>
insi sts</w>
inhabit ants</w>
in ser
imagin ary</w>
il legally</w>
hon our</w>
ho ckey</w>
hand ker
h r
gor illa</w>
goo se</w>
gent lemen</w>
fr anch
fl ags</w>
fil ming</w>
far away</w>
explo ded</w>
exc ess</w>
ex -
e ge</w>
don ors</w>
dinosa ur</w>
descri ptions</w>
coun ters</w>
cor rid
cor d</w>
compu ter-
canc el</w>
can dies</w>
bul ly</w>
bra vely</w>
b bing</w>
b aggage</w>
anti oxid
aller gic</w>
alb ums</w>
al ties</w>
ach ment</w>
W ill
V R</w>
Tran sport</w>
Thir ty</w>
T sin
Stand ard</w>
Sim ple</w>
Shar ks</w>
S ite</w>
Ro oms</w>
Reg ular</w>
R .</w>
Pic tures</w>
P ep
O t
Mar shall</w>
M A</w>
Lou vre</w>
La b</w>
K E
J up
In ner</w>
Immedi ately</w>
IF A</w>
H ut
Foo ds</w>
Fl ying</w>
F an
E cu
Def ense</w>
D awn</w>
D ata</w>
C om</w>
B ao</w>
B R
Ar k
Afric an-American</w>
8 6
7 3
195 8</w>
19 35</w>
18 -year-old</w>
wei ght
vo ters</w>
understand ings</w>
ty ped</w>
tow el</w>
th- grade</w>
t at
super -
suff ers</w>
stre et
skill ful</w>
ri edly</w>
rap h</w>
provid ers</w>
pronoun ce</w>
preschoo l</w>
preci sely</w>
por tions</w>
perf ection</w>
par as
p it</w>
p ing-
p in</w>
p als</w>
net t</w>
ne at</w>
nar r
man i
m im
list ing</w>
li ers</w>
inv enting</w>
ing e</w>
in n
ill board</w>
ich i</w>
gra vit
ful fill</w>
fre ed</w>
fire place</w>
es days</w>
eng ers</w>
e- commerce</w>
dum p</w>
don ating</w>
distribu ted</w>
dis courage</w>
det ected</w>
de bris</w>
consul ting</w>
cinem as</w>
car go</w>
car -
busin ess
broadca sts</w>
bon us</w>
ba king</w>
aw esome</w>
at ories</w>
a ud
Z uck
Y =
Tsin ghua</w>
T ow
Spi rit</w>
Spi elberg</w>
Sh anxi</w>
S u</w>
R ap
Psych ological</w>
Pro gram
N or</w>
N eigh
N BC</w>
Mar tian</w>
Labor atory</w>
K ing
K id</w>
J r.</w>
J ill</w>
Israel i</w>
I II</w>
I G
Har old</w>
Gi ft</w>
Fi ji</w>
F ly
F ear</w>
F IFA</w>
E ri
E X
Don na</w>
D al
Co ach</w>
Clev eland</w>
Chri st</w>
Bo at</w>
Bang lad
BM I</w>
Aug .</w>
Aar on</w>
:30 pm</w>
9 :
8 0s</w>
3 0s</w>
3 00
1. 3</w>
world- class</w>
week -
w rist</w>
under -
un realistic</w>
un common</w>
u no
ty pho
twenty- four</w>
tu m</w>
trad ic
tis sues</w>
tempor arily</w>
t us</w>
t ear
super vision</w>
sub marine</w>
souven irs</w>
shoo ts</w>
sho res</w>
sha w</w>
sem i-
se ized</w>
rob bed</w>
road side</w>
rhyth ms</w>
reven ge</w>
reason ably</w>
re marks</w>
r andom
quar rel</w>
prin ters</w>
pri mitive</w>
pregn ancy</w>
politici an</w>
pat ch</w>
particip ant</w>
or n</w>
or dering</w>
near er</w>
mur dered</w>
mon uments</w>
milli onaire</w>
mil est
measu rements</w>
low- income</w>
land mark</w>
ko alas</w>
k ra
journ als</w>
inf ectious</w>
ick et</w>
h r</w>
guid ing</w>
gene tics</w>
finger prints</w>
eth ical</w>
elec tions</w>
down loaded</w>
dor m</w>
door way</w>
di aries</w>
decl are</w>
de pri
con tradic
compul sory</w>
comp ass</w>
canc eled</w>
ca sting</w>
built- in</w>
break down</w>
bo hydr
begin ners</w>
autom obiles</w>
at ly</w>
astronom y</w>
after no
Wor ld
Sup pose</w>
Stat ue</w>
S ev
Rea gan</w>
Mo tor</w>
Me tro</w>
Mar t
M ason</w>
M .
Lond on
Li fe
J ar
IC E</w>
H at
Gh ana</w>
F ang</w>
E mo
Dar k</w>
D eng</w>
Cor p</w>
Co hen</w>
Chin a
B uck</w>
B lake</w>
Aff airs</w>
6 9
4 50</w>
196 7</w>
100 -
. c
wh is
water mel
viol et</w>
up -to-
understand able</w>
un avoid
u ted</w>
tut oring</w>
tra il
to e</w>
tic ul
th oven</w>
ta kers</w>
t ened</w>
sub -
ste ering</w>
soci alize</w>
simp li
sid ers</w>
shi p
sha dows</w>
sem in
s son</w>
rat ings</w>
ran ch</w>
rain bow</w>
r ating</w>
prof essions</w>
practi se</w>
pe l</w>
o ils</w>
near -
n ap
my th</w>
make up</w>
low- cost</w>
less ness</w>
land l
lab our</w>
l ending</w>
knowled geable</w>
kill ers</w>
j ie</w>
ic -
honey moon</w>
hero ic</w>
her bs</w>
h em
grad ed</w>
gall on</w>
frag ile</w>
fic tional</w>
enc lo
en za</w>
embr ace</w>
ema ker</w>
eco- friendly</w>
ec ture</w>
ec ho
ea sed</w>
drive way</w>
dr un
demonstr ate</w>
decor ation</w>
de but</w>
cr ab
conclud es</w>
compon ents</w>
co l</w>
child care</w>
bree ze</w>
bra ke</w>
benef ited</w>
bel ly</w>
be half</w>
archit ects</w>
and ers</w>
ali e</w>
ac knowledge</w>
Zuck er
Wen dy</w>
Ty ler</w>
Ti an</w>
Sy stems</w>
Ste in
Sh i</w>
R ef
Po li
Par aly
P O
Mad am</w>
M ee
LE D</w>
L ow
K yo
Hun t</w>
Hamp shire</w>
Grad ually</w>
G am
Fri ed
For get</w>
F BI</w>
Enter tainment</w>
Ed wards</w>
E ag
Denn is</w>
Cin dy</w>
Bee thoven</w>
Bal i</w>
Bab ies</w>
Ap pro
194 9</w>
19 20</w>
. co.uk</w>
** **
z u
weak ened</w>
vir tually</w>
uri ous</w>
upri ght</w>
un changed</w>
tim ely</w>
three- year-old</w>
sur geons</w>
stu ffed</w>
st ery</w>
snow -
slo gan</w>
shou ts</w>
scar f</w>
s ors</w>
rout ines</w>
resear ches</w>
rel ating</w>
recre ational</w>
qu itting</w>
qu akes</w>
pump kin</w>
promo tes</w>
pric ing</w>
pre me</w>
plu g</w>
pl astics</w>
oni ons</w>
on aires</w>
mortg age</w>
money -
lunch time</w>
low ering</w>
lif esp
kni ves</w>
jo ys</w>
j am
in fr
in cial</w>
id en</w>
ha l</w>
h ut</w>
h itch
h anding</w>
gl ory</w>
ger ald</w>
ga e</w>
fur ni
fore head</w>
fin ances</w>
fin als</w>
far es</w>
f s</w>
f i</w>
ev a</w>
enroll ment</w>
end ants</w>
ei gh</w>
dis rup
di m
deser ved</w>
demon strated</w>
decreas es</w>
cy ber</w>
cru elty</w>
crocod ile</w>
cri tic</w>
cr acks</w>
cau tion</w>
blu e
bir ths</w>
be having</w>
ar rest</w>
aqu arium</w>
ap es</w>
anctu ary</w>
am phi
ak i</w>
adjust ment</w>
X ie</w>
Wol f</w>
Wind sor</w>
War ner</w>
U p
Sh ort</w>
S on</w>
S ky</w>
S at</w>
S ab
Ro ss</w>
Ri ver
Re porter</w>
Po st
Plan ning</w>
P op</w>
Norwe gian</w>
M others</w>
M ar</w>
L ane</w>
Jup iter</w>
J essie</w>
Ini ti
In tel</w>
In n</w>
Hawai ian</w>
H ond
H ob
Gar d
Fren chman</w>
Fitz gerald</w>
Fi eld</w>
F resh</w>
F ili
F al
ES L</w>
D allas</w>
Cir cle</w>
Ch uck</w>
Califor ni
C z
Bo yle</w>
B arri
Ark ansas</w>
25 th</w>
194 7</w>
12 :00</w>
- minded</w>
wei ghts</w>
war m-
wa ste
up-to- date</w>
uni ons</w>
two- year</w>
terri fying</w>
ta pes</w>
swim mers</w>
sur round</w>
sp er
sl ang</w>
sha ping</w>
sh one</w>
scrap ers</w>
s cars</w>
ro ast</w>
ri dge</w>
reluc tant</w>
reli ed</w>
rel ying</w>
ref uses</w>
recommend ation</w>
re tt</w>
prejud ice</w>
predic ting</w>
pa used</w>
oppon ents</w>
omm unic
ol in</w>
notic es</w>
nerv ously</w>
negl ect</w>
